e </w>
. </w>
t h
s </w>
d </w>
i n
th e</w>
o n
e r
t </w>
a n
a l
t i
e d</w>
f </w>
, </w>
e n
o r
r e
o f</w>
on </w>
g </w>
2 </w>
l </w>
1 </w>
i c
a r
in g</w>
0 </w>
y </w>
o </w>
l e</w>
ti on</w>
t e
3 </w>
or </w>
er </w>
i s</w>
m </w>
a s
u r
s h
al l</w>
a </w>
in </w>
b e</w>
a c
h </w>
a p
t o</w>
4 </w>
a t
sh all</w>
r o
an d</w>
) </w>
( </w>
s t</w>
a tion</w>
e c
d i
m e
v e
5 </w>
s t
h ic
s i
c on
f or</w>
e s</w>
ve hic
a g
6 </w>
/ </w>
l o
e x
al </w>
- </w>
u l
d e
te st</w>
c </w>
m p
m i
p ar
en t</w>
ap p
a t</w>
vehic le</w>
t er
a b
s p
8 </w>
i th
r i
q u
c o
c h
; </w>
th is</w>
c or
7 </w>
a s</w>
o l
w ith
lo w
t s</w>
ur e</w>
c e</w>
k m</w>
t r
ab le</w>
e l
an n
f i
on s</w>
an </w>
ex </w>
u n
u s
ann ex</w>
r ap
s si
l y</w>
l e
p </w>
9 </w>
v e</w>
par ag
parag rap
d ing</w>
with </w>
t ed</w>
s te
s u
p er
c al
p ro
l i
m o
mi ssi
paragrap h</w>
i </w>
: </w>
n o
a ti
as e</w>
en </w>
at ed</w>
re s
t er</w>
m a
e missi
v al
p o
x </w>
c le</w>
e ed</w>
ac cor
= </w>
c y
m e</w>
c l
f ic
m in
s e
ac t
o u
me as
c ul
t y
qu i
f u
m ent</w>
a d</w>
e l</w>
low </w>
w h
i f</w>
th at</w>
g e</w>
as s</w>
sp eed</w>
ch ar
b y</w>
f act
accor ding</w>
f or
cy cle</w>
en c
el ec
i d
c e
p e</w>
a i
v er
cal cul
en ts</w>
i g
at e</w>
s y
t y</w>
fu el</w>
c ri
k </w>
c o</w>
ic </w>
p h
sy ste
b </w>
b e
m b
s a
ty pe</w>
an ce</w>
en er
co mp
n </w>
val u
s s</w>
f er
en ce</w>
l es</w>
" </w>
app l
h a
appl ic
[ </w>
d e</w>
] </w>
r </w>
e v
no t</w>
m ass</w>
× </w>
ph ase</w>
t ing</w>
re c
u re
sp ec
syste m</w>
s e</w>
m an
in ter
o d</w>
de ter
ar e</w>
d o
emissi ons</w>
re qui
f ol
ti me</w>
applic able</w>
pro ce
vehic les</w>
d ed</w>
d ri
er e</w>
f ro
fro m</w>
app en
us ed</w>
di ti
di x</w>
deter min
appen dix</w>
w e
man u
me ter</w>
fol low
sa mp
g y</w>
elec tr
a d
t able</w>
p u
manu fact
m ents</w>
in e</w>
re g
p er</w>
l u
manufact ur
enc y</w>
e f
te st
ener gy</w>
f low</w>
me th
al y
u st</w>
f in
0 0</w>
en g
char ge</w>
er at
p res
fer ence</w>
ma y</w>
− </w>
proce d
spec i
c ase</w>
emissi on</w>
f a
u m</w>
res ul
mb er</w>
fic i
ex ha
exha ust</w>
meas ure
d ur
te mp
cor rec
p ol
electr ic</w>
ou t
ag e</w>
wh ere</w>
s ec
meas ur
a in
manufactur er</w>
n u
temp erat
con su
follow ing</w>
d u
1 0</w>
+ </w>
l t
n a
th an</w>
dri v
calcul ated</w>
e ar
mp tion</w>
d s</w>
d y
ste p</w>
lo ad</w>
i m
v id
e ac
consu mption</w>
proced ure</w>
de s
pu t</w>
ro ad</w>
ig h
des cri
w lt
con diti
temperat ure</w>
o v
c en
nu mber</w>
dy na
requi re
eac h</w>
e qu
ef fici
s ure</w>
w hic
c ur
d er
st an
ter i
do w
con t
d ec
j </w>
d at
par ti
st r
g as</w>
i b
fa mi
ati ve</w>
cen tr
m s</w>
inter pol
con si
n o</w>
b ed</w>
dur ing</w>
re ference</w>
o per
us e</w>
us ing</w>
an aly
measur ed</w>
an ge</w>
ati ons</w>
eng ine</w>
fi ed</w>
l ing</w>
po in
t an
sec on
m on
a f
for m
out put</w>
con centr
dat a</w>
meth od</w>
app ro
analy s
require ments</w>
as t</w>
cl u
u al</w>
ai r</w>
on e</w>
ai l
de p
t o
c ar
with in</w>
o th
w h</w>
whic h</w>
fami ly</w>
per i
measure ment</w>
valu e</w>
ib r
p p
interpol ation</w>
descri bed</w>
cal ibr
determin ed</w>
c tion</w>
li ed</w>
fi l
ul ation</w>
e qui
st ar
p e
ag ency</w>
concentr ation</w>
t e</w>
a ver
i t
d er</w>
valu es</w>
im um</w>
af ter</w>
o b
at ing</w>
di lu
consi der
c ent</w>
mo meter</w>
s ti
c h</w>
me di
st ance</w>
app lied</w>
r a
di vid
s elec
i t</w>
le ast</w>
reg ulation</w>
ear </w>
h ev
dep le
± </w>
resul ts</w>
2 0</w>
ti ve</w>
conditi ons</w>
on al</w>
l ed</w>
cri teri
be t
dyna mometer</w>
in clu
poin t</w>
co effici
bet we
betwe en</w>
° </w>
p re
re e
an s</w>
v i
fi g
r ange</w>
v </w>
re sp
resp on
deple ting</w>
an y</w>
w in
fi r
r ed</w>
ain ing</w>
f ul
in divid
s o
calcul ation</w>
consider ed</w>
1 00</w>
me ans</w>
r un
individ ual</w>
ar d</w>
k g</w>
aver age</w>
speci fic
p l
car b
fact or</w>
pres sure</w>
% </w>
we igh
de fin
i ty</w>
ol u
calibr ation</w>
fin al</w>
samp le</w>
ou t</w>
samp ling</w>
peri od</w>
char g
su st
sust aining</w>
a k
v ic
ro un
i li
as s
po w
v al</w>
per form
ou s</w>
w </w>
correc tion</w>
ov c</w>
ig h</w>
t al</w>
a te
h y
ro l</w>
th e
mo de</w>
t en
equ ation</w>
a v
e st</w>
secon d</w>
star t</w>
g ear</w>
g as
h igh</w>
el er
t w
m en
n e
c d</w>
ch ec
g n
v ed</w>
comp on
on ly</w>
wlt c</w>
ter s</w>
se t</w>
ree ss</w>
fig ure</w>
l ar
ob d</w>
s s
1 2</w>
wh en</w>
wlt p</w>
or s</w>
criteri a</w>
speci fied</w>
re qu
di f
a use</w>
defin ed</w>
a y</w>
analys er</w>
b le</w>
fic ation</w>
cl es</w>
carb on</w>
1 5</w>
eler ation</w>
h o
re a
v s</w>
tr ac
m ul
m or
tan k</w>
re cor
test s</w>
c u
ma x
0 0
max imum</w>
se qu
av ail
i s
as ed</w>
u p
fir st</w>
cl ass</w>
stan d
in d
tr an
mor e</w>
appro val</w>
o p
d ro
pl ac
en s
v olu
r e</w>
p ur
par a
h s</w>
r ate</w>
dilu tion</w>
oper ation</w>
≤ </w>
ver i
specific </w>
requi red</w>
t u
di stance</w>
n ec
avail able</w>
paragrap hs</w>
m co</w>
n ing</w>
p or
hev s</w>
l in
oth er</w>
to tal</w>
for e</w>
2 3</w>
5 0</w>
parti cle</w>
le ss</w>
e ous</w>
po si
2 5</w>
perform ed</w>
̅ </w>
vic e</w>
c s</w>
ro u
ar y</w>
ov er</w>
cl ause</w>
tw o</w>
mon it
hy dro
ac c
ha ve</w>
t ted</w>
f un
p ri
en t
y es</w>
si on</w>
medi um</w>
du c
al ly</w>
resul t</w>
er s</w>
re s</w>
3 0</w>
test ing</w>
si gn
str u
du ction</w>
pe ms</w>
correc ted</w>
4 0</w>
t ri
cont rol</w>
su ch</w>
driv en</w>
volu me</w>
su b
respon se</w>
selec ted</w>
test ed</w>
driv ing</w>
c al</w>
be fore</w>
r ati
an e</w>
coeffici ent</w>
h igh
comp le
ab ili
un der</w>
1 4</w>
ter n
c an</w>
w ay</w>
a in</w>
1 3</w>
ac h
en d</w>
u p</w>
s o</w>
ch ass
chass is</w>
con for
… </w>
b ased</w>
h e
2 1</w>
pp m</w>
en ti
determin ation</w>
f ch
ad diti
n m
t or
co m
sa me</w>
accor d
me ters</w>
ure s</w>
run </w>
ma in
1 1</w>
a er
accord ance</w>
ti c</w>
dow n</w>
at er</w>
i ts</w>
weigh ted</w>
t ak
stand ard</w>
re l
le ve
ac ti
h as</w>
li mi
s ens
∆ </w>
e t</w>
z er
pro vid
ti ons</w>
i st
pow er</w>
conditi on
additi onal</w>
rou g
c at
b u
cat aly
dec lar
ac cur
an t</w>
c re
recor ded</w>
– </w>
di tion</w>
th roug
c ap
lo c
ab o
abo ve</w>
ro l
rati o</w>
win dow
ic al</w>
parti cul
m at
tri p</w>
re spec
th re
no v
acc eleration</w>
in g
ur b
confor mi
conformi ty</w>
dyna m
re si
in stru
zer o</w>
roun ded</w>
s er
i d</w>
ec ted</w>
win d</w>
ag e
p ment</w>
fu el
f f</w>
h c</w>
ain ed</w>
w i
ma x</w>
nov c</w>
p a</w>
co as
2 2</w>
as es</w>
le t</w>
syste ms</w>
j u
se t
fch vs</w>
al tern
requ est</w>
∑ </w>
equi pment</w>
b o
par t</w>
fil ter</w>
sh o
coeffici ents</w>
char ac
driv er</w>
coas t
declar ed</w>
di s
urb an</w>
acti v
4 2</w>
re por
g en</w>
condition ing</w>
w ar
cy cles</w>
chec k
co mb
equi val
age ing</w>
m ed</w>
ar ith
i i</w>
the se</w>
cataly st</w>
ac y</w>
dynam ic</w>
charac teri
throug h</w>
accur acy</w>
leve l</w>
oper ating</w>
4 3</w>
dow n
arith me
enc h</w>
or der</w>
an g
effici ency</w>
f ec
a re
ind ic
arithme tic</w>
4 5</w>
tran s
wh e
6 0</w>
coast down</w>
min imum</w>
secon ds</w>
res er
reg ener
compon ents</w>
equ al</w>
4 8</w>
reser ved</w>
ev ap
g i
n or
fun ction</w>
para meters</w>
evap or
ul d</w>
min u
con nec
m al
re ag
resi stance</w>
a mb
4 4</w>
s ed</w>
e t
particul ate</w>
pur po
ad ju
adju st
i tion</w>
o t</w>
enc lo
1 8</w>
o c
aer o
inclu ding</w>
in st
ig n
2 6</w>
reag ent</w>
ch ange</w>
d es</w>
abili ty</w>
g ra
ex ce
re pres
c an
can ist
mi </w>
ar </w>
evapor ative</w>
n g</w>
1 7</w>
o x
3 3</w>
3 5</w>
low er</w>
sh i
meth ane</w>
stan t</w>
compon ent</w>
g re
measure ments</w>
inst al
fa ul
form ation</w>
2 9</w>
amb i
ambi ent</w>
3 6</w>
mi tted</w>
oc cur
g ener
i ti
comp o
id enti
ur </w>
' s</w>
f t</w>
y ing</w>
con stant</w>
no x</w>
dilu ted</w>
d ra
o se</w>
k pa</w>
d en
tu de</w>
de mon
demon str
m g</w>
characteri sti
set ting</w>
b ench</w>
val id
chec k</w>
di rec
de vice</w>
dif fer
2 4</w>
ful fil
posi tive</w>
3 2</w>
f r
equival ent</w>
’ </w>
ith er</w>
t ained</w>
con ver
canist er</w>
pro duction</w>
pre conditioning</w>
n on</w>
f l
l er</w>
p n</w>
al ti
alti tude</w>
sens or</w>
r de</w>
se e</w>
o ds</w>
8 0</w>
1 6</w>
o ff</w>
pow er
con dition</w>
a k</w>
enclo sure</w>
or y</w>
el l</w>
1 9</w>
ur al</w>
un ti
unti l</w>
t ol
4 1</w>
d c</w>
u </w>
4 7</w>
ssi ble</w>
3 4</w>
nor m
ate ly</w>
be low</w>
tol er
w as</w>
co un
sequ ence</w>
a x
oth </w>
e ither</w>
c eed</w>
poin ts</w>
t un
st or
th er</w>
dri ve</w>
in d</w>
comple te</w>
measur ing</w>
n el</w>
ve ly</w>
monit or
gas eous</w>
ti onal</w>
be en</w>
re fer
dif ference</w>
ex ceed</w>
re ssi
4 6</w>
3 9</w>
5 2</w>
cur ve</w>
me tr
plac ed</w>
tak en</w>
aero dynamic</w>
l ine</w>
5 6</w>
tun nel</w>
mo tor
motor way</w>
in formation</w>
pp ed</w>
in to</w>
re com
bu t</w>
proce ss</w>
3 1</w>
st rea
e e
0 00</w>
r ural</w>
sp an</w>
faul t</w>
< </w>
3 8</w>
recom men
p n
2 7</w>
at or</w>
in cre
gener al</w>
u ti
gas es</w>
in iti
al so</w>
with out</w>
po ssible</w>
ph ases</w>
5 3</w>
9 5</w>
app </w>
co p</w>
act ual</w>
ful l</w>
f c
r r
l l</w>
2 8</w>
b oth</w>
high er</w>
ty re</w>
cu mul
t ro
e valu
thre e</w>
eng in
charg ed</w>
parti cles</w>
gre ater</w>
cor respon
con duc
uti li
app ly</w>
appro pri
ressi on</w>
z </w>
window s</w>
ex ten
5 4</w>
car ri
si tion</w>
compo un
n al</w>
ti fication</w>
hydro carbon</w>
criteri on</w>
a mp
trac e</w>
4 9</w>
w or
v ing</w>
p ev
ar i
co l
run ning</w>
re ach
so ur
ign ition</w>
th </w>
te s</w>
a u
equi pped</w>
di ag
ch ang
carri ed</w>
te ch
5 1</w>
li es</w>
p i
appropri ate</w>
c es</w>
repres ent
strea m</w>
altern ative</w>
veri fication</w>
e ss
tan eous</w>
f ail
t ail
s cal
9 0</w>
represent ative</w>
v max</w>
regener ation</w>
mul ti
is c</w>
si ve</w>
b al
ef fec
qu e</w>
in stan
instan taneous</w>
f lu
analys ers</w>
st ati
para meter</w>
provid ed</w>
in let</w>
wh o
who le</w>
charg e
charg ing</w>
utili ty</w>
diag no
ap </w>
de te
th ose</w>
w d</w>
' </w>
v en</w>
w n</w>
ec u</w>
ind ex</w>
a ve</w>
i sion</w>
1 0
p t</w>
w it
m in</w>
th en</w>
6 2</w>
applic ation</w>
fact ors</w>
ac k
instru ment</w>
for ce</w>
fr on
7 3</w>
nec ess
high est</w>
5 5</w>
ser vice</w>
bo ard</w>
al s</w>
tech n
3 7</w>
c vs</w>
de vi
gi ven</w>
p tion</w>
≥ </w>
ty p
cur r
mo des</w>
5 8</w>
6 3</w>
pri or</w>
norm al</w>
th ere</w>
> </w>
6 1</w>
p ure</w>
g r
pro p
co ol
lin ear
differ ent</w>
sour ce</w>
do es</w>
activ ated</w>
7 0</w>
im al</w>
fulfil led</w>
ag ed</w>
follow s</w>
sub sequ
mo di
cont in
contin u
t or</w>
pu mp
comb in
ac ce
ti on
sh or
necess ary</w>
toler ance</w>
ob tained</w>
me an</w>
f requ
calibr ated</w>
pe t
pet rol</w>
diagno sti
i r
f e
instal led</w>
reach ed</w>
purpo se</w>
dec imal</w>
con sec
dec eleration</w>
proced ures</w>
t re
c er
curr ent</w>
v ari
d r
pn c</w>
re mo
mi x
in put</w>
s wit
ing s</w>
val id</w>
correspon ding</w>
di a
recommen ded</w>
so ak</w>
c ate
cate g
determin e</w>
shi ft</w>
trans missi
i o
valid ation</w>
ar g
analys is</w>
tor que</w>
c ann
g er</w>
frequ ency</w>
n m</w>
n ve
nve h</w>
selec tion</w>
initi al</w>
pol lu
vic es</w>
g roun
cann ot</w>
o ur</w>
consec u
consecu tive</w>
rel ated</w>
g h
specific ations</w>
o ver
si ons</w>
limi t</w>
groun d</w>
ty res</w>
wi ll</w>
tran sition</w>
ur s</w>
mal function</w>
g a
1 20</w>
minu tes</w>
z e</w>
ec dc</w>
inclu sive</w>
exten ded</w>
ab s
pro vi
7 5</w>
pump </w>
bal ance</w>
s es</w>
engin es</w>
rea ding</w>
f ac
ve loc
l ast</w>
whic hev
whichev er</w>
check ed</w>
s mo
refer red</w>
b es</w>
ac </w>
dete c
s ing
t arg
targ et</w>
dra g</w>
veloc ity</w>
t ly</w>
evalu ation</w>
co de</w>
b el
sho uld</w>
ho urs</w>
characteristi cs</w>
ic ally</w>
in tro
i es</w>
per missi
a y
nm hc</w>
sing le</w>
se par
mo un
ex p
fi tted</w>
a er</w>
re le
conduc ted</w>
up on</w>
enc es</w>
me et</w>
den o
# </w>
fuel s</w>
v ol
fun c
de vices</w>
permissi ble</w>
fi d</w>
rr c</w>
rol ling</w>
re pe
are a</w>
no tification</w>
provid e</w>
dia meter</w>
id e</w>
typ es</w>
l p
ic e</w>
a mber</w>
8 9</w>
power ed</w>
im medi
immedi ately</w>
wi se</w>
ste p
gh t</w>
lp g</w>
ti cal</w>
nm c</w>
consi st
st o
transmissi on</w>
swit ch
ga z
gaz et
gazet te</w>
on g</w>
in te
deno min
mat ri
matri x</w>
multi p
h z</w>
do cu
monitor ing</w>
fi le</w>
k e</w>
window </w>
be ing</w>
cap ac
p re</w>
pi pe</w>
min al</w>
concentr ations</w>
exp ected</w>
plac e</w>
con fig
config ur
ai r
n n
lo a
linear ity</w>
b io
re placed</w>
w ater</w>
carb ons</w>
no minal</w>
ch amber</w>
tr ain</w>
m and</w>
ear s</w>
metr ic</w>
inclu de</w>
respec tive</w>
ec ac</w>
p ass
a es</w>
perform ance</w>
calcul ations</w>
capac ity</w>
b ack
hydro carbons</w>
in flu
thre sh
thresh ol
ent ly</w>
al low
f e</w>
ma de</w>
ch o
st abili
ne are
neare st</w>
re charged</w>
b ri
selec table</w>
veri f
th er
hev </w>
e ment</w>
i r</w>
veri fied</w>
be g
me s</w>
descri ption</w>
deter i
deteri or
op tion</w>
5 7</w>
1 21</w>
equ ations</w>
out let</w>
ox y
oxy gen</w>
t age</w>
c r
di ty</w>
et c</w>
back ground</w>
on ic</w>
the ir</w>
el s</w>
per mitted</w>
f fici
monit or</w>
rele v
relev ant</w>
ver y</w>
2 00</w>
u f
ha ving</w>
dur ability</w>
cumul ative</w>
meth ods</w>
m c</w>
rol ler</w>
de mand</w>
limi ts</w>
su ffici
ex amp
gas ol
gasol ine</w>
6 5</w>
i z
er 's</w>
comp li
pev s</w>
e se
techn ical</w>
comb us
combus tion</w>
se al
th c</w>
adjust ment</w>
pro be</w>
s ur
w ell</w>
op tional</w>
oper ated</w>
o s</w>
stati sti
i mp
ee ds</w>
6 4</w>
7 1</w>
7 9</w>
8 1</w>
mo der
moder ate</w>
bio methane</w>
hy bri
i ii</w>
i v</w>
ati onal</w>
un it</w>
comp ar
su pp
con fir
main s</w>
sign al</w>
sp eeds</w>
war ning</w>
a res</w>
sens ors</w>
gn ss</w>
exce e
tre at
treat ment</w>
as se
diagnosti c</w>
col l
f ur
beg in
b rea
dur ation</w>
cap </w>
ful fi
fulfi l</w>
deterior ation</w>
en sure</w>
roun ding</w>
 </w>
peri ods</w>
* </w>
in du
categ ory</w>
fuel led</w>
k i
for m</w>
inclu ded</w>
sign ed</w>
seal ed</w>
brea k</w>
se a</w>
tak e</w>
re str
in al</w>
pollu tan
require ment</w>
statisti cal</w>
compoun d</w>
repor t</w>
t ation</w>
manufactur er's</w>
hybri d</w>
c ell</w>
di ese
diese l</w>
sign als</w>
c lo
ili ty</w>
inter nal</w>
respec t</w>
whe els</w>
fur ther</w>
connec ted</w>
o us
calcul ating</w>
p ass</w>
par ts</w>
l ation</w>
posi tion</w>
e very</w>
reg ression</w>
lin ear</w>
5 9</w>
6 6</w>
7 6</w>
fol low</w>
so ak
ki lo
e st
a f</w>
di sp
main ten
mainten ance</w>
ve s</w>
dep en
h er
direc tly</w>
i al</w>
fail ure</w>
war m</w>
suffici ent</w>
mo de
l s</w>
fami lies</w>
demonstr ate</w>
d j</w>
shor ten
shorten ed</w>
6 7</w>
9 7</w>
stor age</w>
provi sions</w>
ad dition</w>
j ec
purpo ses</w>
m ati
at mo
atmo sp
dr y</w>
si ty</w>
pro duc
begin ning</w>
ach i
ous ly</w>
p r
u s</w>
9 9</w>
correc t</w>
temperat ures</w>
6 8</w>
7 4</w>
loa ding</w>
ne w</w>
re ad
o l</w>
he ated</w>
di </w>
si de</w>
ax le</w>
co ver
b ec
denomin ator</w>
occur s</w>
s qu
subsequ ent</w>
p air
∗ </w>
pp mc</w>
t ure</w>
scal e</w>
tail pipe</w>
p rec
acce p
he at</w>
v i</w>
ti vely</w>
indu ce
induce ment</w>
f low
si ze</w>
d one</w>
e mp
fron t</w>
0 2</w>
pair s</w>
characteristi c</w>
i l
compli ance</w>
ate s</w>
sh ed</w>
influ ence</w>
ro t
p air</w>
repe ated</w>
devi ation</w>
switch ed</w>
altern ati
s ati
sati s
electr ical</w>
lo ss</w>
oth er
other wise</w>
examp le</w>
app ed</w>
identi cal</w>
step s</w>
samp les</w>
abs olu
absolu te</w>
00 1
hydro gen</w>
verif ying</w>
trac e
dec ision</w>
gra m</w>
k ing</w>
e th
si mul
al ity</w>
pres cri
occur </w>
appro ved</w>
measure s</w>
9 4</w>
7 2</w>
smo oth
lar ger</w>
? </w>
00 0
st ate</w>
vol tage</w>
intro duction</w>
r c
rel ative</w>
den sity</w>
star ts</w>
conver ter</w>
power train</w>
g ears</w>
v ap
is ation</w>
d ary</w>
ful ly</w>
or ig
h u
t ain</w>
on ce</w>
ad ded</w>
7 8</w>
sho wn</w>
weigh ing</w>
inter medi
intermedi ate</w>
ag ing</w>
2 0
id le</w>
tu be</w>
tr a
mat er
g n</w>
alternati vely</w>
8 5</w>
di ur
ar o
un less</w>
mode l</w>
incre men
coun t</w>
hu mi
nm in</w>
multip le</w>
dec </w>
asse ss
repor ting</w>
pre par
compoun ds</w>
ox ide</w>
prec ision</w>
whe ther</w>
whe el</w>
b as
charge depleting</w>
star ting</w>
m ing</w>
lin es</w>
ho ur</w>
diur nal</w>
allow ed</w>
orig inal</w>
ro ss</w>
humi dity</w>
cover ed</w>
inte gr
n ed</w>
ai l</w>
te ly</w>
7 7</w>
instal lation</w>
recor ding</w>
fc cd</w>
ef m</w>
b c</w>
b ility</w>
detec tor</w>
p r</w>
ne g
an e
stor ed</w>
ex clu
2 73</w>
vap our</w>
monitor ed</w>
w o
wo uld</w>
repor ted</w>
c i
c ases</w>
c m</w>
minu te</w>
activ ation</w>
ti mes</w>
se ver
5 89</w>
bel t</w>
inter ference</w>
b re
men tation</w>
peri o
perio d
en ted</w>
stand ar
l ab
st ed</w>
comp u
p m</w>
prop ane</w>
a m
atmosp her
appro x
tra ve
h an
de signed</w>
prescri bed</w>
secon dary</w>
me t</w>
c apped</w>
cumul ated</w>
re medi
ree s
rees ss</w>
po st</w>
9 3</w>
adjust ed</w>
b a
ba g</w>
ec wltc</w>
per wltc</w>
interpol ated</w>
ho t</w>
soak ing</w>
m ulation</w>
trace able</w>
aver aging</w>
el ev
de tail
ev er</w>
v ent
vent ur
coll ected</w>
n it
limi ted</w>
ex tern
descri bes</w>
s ing</w>
fron tal</w>
atmospher ic</w>
p lu
combin ation</w>
ac t</w>
separ ate</w>
ab ly</w>
pu ff</w>
cool ant</w>
erat or</w>
e ts</w>
leve ls</w>
i se</w>
ev id
evid ence</w>
respec tively</w>
li sted</w>
resul ting</w>
f ail</w>
remedi al</w>
er ee
eree ss</w>
demonstr ated</w>
t ur
l ap</w>
dri ft</w>
up stream</w>
dis cre
au to
h ar
str ate
pro file</w>
k e
mat ter</w>
ventur i</w>
re duction</w>
ol s</w>
ib le</w>
extern al</w>
effec t</w>
direc tion</w>
de si
func tion
clu t
l led</w>
pev </w>
trac tion</w>
shi f
pre do
predo min
pres sur
n eed</w>
monit ors</w>
com m
nu m
pre v
col d</w>
av o
ag ain
again st</w>
pollutan t</w>
wor st</w>
fil ters</w>
indic ated</w>
modi fied</w>
min i
appl ying</w>
cap able</w>
6 9</w>
′ </w>
fl at</w>
calcul ate</w>
to l</w>
re e</w>
elev ation</w>
ay s</w>
v pr</w>
v er</w>
nit ro
nitro gen</w>
a moun
threshol ds</w>
re as
predomin ant</w>
f y</w>
mi s
comp ression</w>
d am
exce pt</w>
j ected</w>
mon th
k i</w>
follow ed</w>
down scal
er r
se ts</w>
sto p</w>
sever al</w>
re ar</w>
reg i
meas ure</w>
down stream</w>
discre te</w>
so f
sof tw
softw are</w>
i fic
g rap
mix ture</w>
vehic le
vehicle 's</w>
ti fied</w>
n ex
nex t</w>
su res</w>
g ed</w>
w s</w>
cont ent</w>
consider ation</w>
ro w</w>
s lo
k s</w>
inter i
8 8</w>
9 6</w>
approx i
approxi ma
approxima tely</w>
se g
al ign
instru ments</w>
run s</w>
assess ment</w>
est ab
estab li
10 1</w>
b ase</w>
c f
fch v</w>
disp l
f er</w>
du e</w>
reg ar
ss es</w>
pol y
bas is</w>
desi gn</w>
prop ul
propul sion</w>
auto mati
trave lled</w>
s ol
de pressur
c le
er ing</w>
val s</w>
m ar
li fe</w>
pur ge</w>
sequ ences</w>
stabili z
comple ted</w>
fil l</w>
subsequ ently</w>
l eng
co lu
colu m
h m</w>
f c</w>
m j</w>
cr u
charge sustaining</w>
chang es</w>
a is</w>
at ory</w>
wh i
whi le</w>
su m</w>
amoun t</w>
re pair</w>
fac e</w>
the y</w>
loc ation</w>
configur ation</w>
depressur isation</w>
k el
si mi
simi lar
similar </w>
mis fir
dam age</w>
b aro
baro metric</w>
de fault</w>
j us
set t
is o</w>
olu tion</w>
an ces</w>
f our</w>
squ ares</w>
slo pe</w>
e sti
m ation</w>
remo val</w>
leng th</w>
ab les</w>
bo d
bod y</w>
fi x
cool ing</w>
f an</w>
eac </w>
e aer
period ically</w>
regener ating</w>
g ain</w>
i up
in ten
ag ree
agree ment</w>
iz ation</w>
ma in</w>
w ere</w>
ther e
as si
ch e
d a</w>
combin ed</w>
n ational</w>
chang ed</w>
consist s</w>
ri se</w>
clut ch</w>
m ec
mec han
“ </w>
3 00</w>
misfir e</w>
ex pres
p en
st at
stat us</w>
at ter
sett ings</w>
fic ations</w>
nn nn
ass es</w>
rel ation</w>
toler ances</w>
der i
check s</w>
v cap</w>
w ot</w>
down shift</w>
weigh t</w>
| </w>
l on
colum n</w>
ax is</w>
mini mi
vari able</w>
r ang
confir mation</w>
b in</w>
cl d</w>
check ing</w>
d ate</w>
m ap</w>
ss v</w>
af fec
loc ated</w>
lo sses</w>
t res</w>
” </w>
ter m</w>
op en</w>
restr ic
plac es</w>
month s</w>
res olution</w>
pr in
ci p
jec tion</w>
at ure</w>
star ted</w>
10 22</w>
achi e
p wot</w>
expres sed</w>
shif ts</w>
o m</w>
un its</w>
o i
1 32</w>
an k
pre vi
9 8</w>
cri tical</w>
cont rol
depen d
for ces</w>
con stru
ax les</w>
in er
iner ti
id ling</w>
rati os</w>
ac tion</w>
compu ter</w>
c ause</w>
pro por
threshol d</w>
pl an</w>
comp ly</w>
manufactur ers</w>
k co</w>
m m</w>
prin cip
trac k</w>
qu ality</w>
mi le
mile age</w>
4 00</w>
low est</w>
ad d</w>
in ste
inste ad</w>
de lt
delt a</w>
fix ed</w>
lab or
ro om</w>
norm ally</w>
grap hic
ec p</w>
cru ise</w>
ap os</w>
excee ding</w>
f ree</w>
tr </w>
wor king</w>
is ed</w>
du ce</w>
ho w
how ever</w>
eth an
qu an
cl assi
refer s</w>
de l
defin ition</w>
b i</w>
mater ial</w>
bre ak
ev ents</w>
s en</w>
l ong</w>
incre ase</w>
s in
sin ce</w>
c ir
en able</w>
fu l</w>
ss ing</w>
r on
tion ed</w>
0 1</w>
b ra
continu ously</w>
esti m
consi st</w>
8 2</w>
achie ve</w>
interi m</w>
n add</w>
clo sed</w>
labor atory</w>
uf m</w>
pass ed</w>
tur ned</w>
an c
enti al</w>
au x
docu mentation</w>
manu al</w>
s bc</w>
ex change</w>
fail ed</w>
detail ed</w>
reg ul
g o
docu ment</w>
identi fication</w>
li qui
c a
d o</w>
mix ing</w>
continu ous</w>
plu s</w>
ser ies</w>
main tained</w>
b l
an other</w>
re li
per cen
cont ain</w>
ac tive</w>
throug h
through out</w>
at ors</w>
mar k
integr ated</w>
modi fications</w>
r ing</w>
downscal ing</w>
sy n
engin e
confor m</w>
th ir
c tions</w>
n g
ng vmax</w>
v j</w>
id s</w>
enc ies</w>
particul ar</w>
condition ed</w>
oi l</w>
ex chang
read ings</w>
conver sion</w>
m ol
mol ar</w>
inter val</w>
con cer
cer ti
speci al</w>
diagnosti cs</w>
re al</w>
d ated</w>
su b</w>
respon si
recommen d
tan e</w>
ethan ol</w>
c f</w>
sti tu
ma j
maj or</w>
affec t</w>
de gre
r ated</w>
dri ve
metr y</w>
igh t</w>
divid ed</w>
inerti a</w>
compar ed</w>
rc dc</w>
aux ili
auxili ary</w>
3 25</w>
gra ms</w>
de fici
identi fied</w>
bec o
ac count</w>
enti re</w>
us e
use ful</w>
avo id</w>
en ds</w>
& </w>
in jection</w>
deri ved</w>
r an
y ear
year ly</w>
indic es</w>
ain t</w>
ec </w>
0 5</w>
thir d</w>
sign ific
aver aged</w>
determin ing</w>
instru ctions</w>
inter vals</w>
t start</w>
cho sen</w>
separ ately</w>
g it
prepar ation</w>
ens ation</w>
neg ative</w>
comple tion</w>
err or</w>
exchang er</w>
ti </w>
pass ing</w>
mo bility</w>
in take</w>
gra de</w>
smooth ing</w>
d w
li ght</w>
r m</w>
establi sh
reg ard</w>
pri m
id ed</w>
app lies</w>
categ or
liqui d</w>
d p</w>
p f</w>
mon oxide</w>
d ou
m ann
mann er</w>
del ay</w>
w ard</w>
simul ated</w>
cal ly</w>
m ach
fl ex</w>
configur able</w>
al low</w>
fuel ling</w>
electr onic</w>
intro duc
cont ained</w>
he ating</w>
cir cu
t en</w>
de e
dee med</w>
pro te
incre ased</w>
ke pt</w>
accep table</w>
un der
sp li
out side</w>
princip le</w>
st ated</w>
multip lied</w>
exclu ded</w>
1 50</w>
de activated</w>
valid ated</w>
o f
m r</w>
down shifts</w>
effec tive</w>
si mulation</w>
ra di
l m</w>
align ment</w>
cor r</w>
produc t</w>
cor relation</w>
rang es</w>
b ag
bag s</w>
in valid</w>
deple tion</w>
p m
dra in</w>
o do
certi fic
certific ate</w>
cr ank
crank case</w>
iup rm</w>
un i
8 3</w>
pollu tion</w>
ro ad
s el
coun ter</w>
ne ss</w>
dou ble</w>
control led</w>
loc k
fil led</w>
ne e
achi ev
mechan ical</w>
e aer</w>
ter ed</w>
n e</w>
k w</w>
ev ent</w>
val ve</w>
detec ted</w>
shor t</w>
connec tion</w>
standar ds</w>
to ol</w>
go od</w>
cont ain
re main</w>
bel ong</w>
spli t</w>
h ere</w>
effec ts</w>
d ic
char t</w>
sec tion</w>
h ol
√ </w>
4 38</w>
ju d
fi t</w>
emp ty</w>
r up
eng aged</w>
restr aint</w>
samp led</w>
y ear</w>
equival ency</w>
connec ting</w>
in t</w>
step wise</w>
kilo meter</w>
eaer p</w>
incremen ted</w>
sh ares</w>
1 23</w>
iz ed</w>
defin i
defini tions</w>
strate gy</w>
p ack
pack age</w>
ic s</w>
a men
ve lo
inclu des</w>
1 1
per me
fi er</w>
co uld</w>
ane mometer</w>
enc ed</w>
ane mo
anemo metry</w>
he ight</w>
per man
nee ded</w>
ne u
neu tr
e ss</w>
u t</w>
e mitted</w>
require s</w>
over flow</w>
break through</w>
co des</w>
il lu
indic ator</w>
cy lin
differ ences</w>
ad ap
y ears</w>
supp ly</w>
sti ll</w>
demonstr ation</w>
un d</w>
function ing</w>
stan ces</w>
o mitted</w>
per form</w>
8 6</w>
le ak
consist ing</w>
inter rup
recor d</w>
d ays</w>
re main
ten d</w>
acc el
accel erator</w>
k no
t on
c ross</w>
analys ed</w>
smooth ed</w>
propor tional</w>
ther m
d ay</w>
ste ad
stead y</w>
b y
uf phase</w>
fc weighted</w>
per low</w>
per med</w>
per high</w>
c i</w>
graphic </w>
qu ench</w>
h corr</w>
na me</w>
5 00</w>
li st</w>
ann ex
val i
vali dity</w>
un </w>
de velo
previ ous</w>
l a
categor ies</w>
disp er
t t</w>
ul tr
ultr as
ultras onic</w>
sy mb
li g
re plac
ac h</w>
j ust</w>
sur face</w>
to ols</w>
fe at
inten ded</w>
mo st</w>
depend ent</w>
achiev ed</w>
ne t</w>
e ments</w>
ai d</w>
reas on
di st
ti es</w>
sol id</w>
moun ted</w>
quan ti
func tions</w>
pres ent</w>
adjust ments</w>
b atter
batter y</w>
dra wn</w>
declar ation</w>
r ic
en ing</w>
v able</w>
gi es</w>
a de
ade qu
devi ate</w>
pre fer
vi e
us es</w>
ch ev
nor mal
1 25</w>
engine ering</w>
fi ve</w>
as i
8 00</w>
remain ing</w>
n idle</w>
coun ting</w>
remo ved</w>
kno wn</w>
ag ain</w>
v in</w>
pro bes</w>
con d
cond ensation</w>
stati c</w>
conver ted</w>
i fied</w>
pur ged</w>
i w
iw r</w>
re fill</w>
to po
topo graphic</w>
we t</w>
dat as
datas ets</w>
metr e</w>
read y</w>
en ting</w>
ri bu
perme ability</w>
bu tane</w>
fl a
fla me</w>
ec tion</w>
displ ac
displac ement</w>
vol ati
volati le</w>
eth ane</w>
tr ap</w>
minu s</w>
cont aining</w>
iti es</w>
feat ures</w>
accur ate</w>
cont act</w>
automati c</w>
neutr al</w>
mach ine</w>
er al</w>
there fore</w>
l aid</w>
man i
c ted</w>
e f</w>
li kel
acce ss</w>
defici ency</w>
g ri
incremen ting</w>
num erator</w>
dis ab
responsi ble</w>
gr an
fulfil ling</w>
ac ross</w>
de fec
h ib
5 0
pollutan ts</w>
cl asses</w>
prefer ably</w>
ad v
adv ance</w>
har dw
hardw are</w>
ran do
men tioned</w>
hol der</w>
signific ant</w>
at t
switch ing</w>
ex pl
ho w</w>
pr acti
9 1</w>
acc eler
correc tions</w>
centr e</w>
mi ght</w>
compo sition</w>
ton ne</w>
st able</w>
seg ment</w>
t m</w>
fac ili
s mal
su ction</w>
ra w</w>
pi p
p i</w>
bal anc
balanc ed</w>
contain s</w>
pur ified</w>
syn the
synthe tic</w>
proce ssing</w>
le ak</w>
s se</w>
00 3</w>
ec low</w>
ec med</w>
ec high</w>
trans formation</w>
sh are</w>
h int</w>
har mon
modi fication</w>
smo ke</w>
mo ving</w>
dynam ics</w>
g tr</w>
jec t</w>
prim ary</w>
standar dis
g rou
grou p</w>
di oxide</w>
cf v</w>
i on
ar ed</w>
dete ction</w>
symb ols</w>
ox id
neg lig
neglig ible</w>
ag re
mater i
materi als</w>
pro per</w>
for ward</w>
mo tion</w>
b lock
techn ically</w>
ex peri
si tu
dec re
mon o</w>
pro per
fi es</w>
mani fol
c t</w>
cataly tic</w>
fil ler</w>
quanti ty</w>
ter ing</w>
ter ms</w>
percen tage</w>
s che
provid es</w>
requi re</w>
vi a</w>
indic ating</w>
confir med</w>
f ected</w>
me ets</w>
strate gies</w>
d al</w>
d f</w>
n er</w>
vi ty</w>
stabiliz ed</w>
verif y</w>
specific ation</w>
ev en</w>
v o
jud g
judg ement</w>
dro p</w>
att ach
sa fe
safe ty</w>
clo se</w>
re starts</w>
indic ate</w>
of f
ri s
ris k</w>
al ong</w>
in cor
incor por
men ted</w>
i te
8 4</w>
requ est
g e
co ver</w>
seg ments</w>
ann ed</w>
l at
smal ler</w>
fe as
cy cl
elec tro
flow ing</w>
consu med</w>
zer o
sa e</w>
us able</w>
h ist
1 19</w>
r ul
rul es</w>
s d
sd bc</w>
ac cu
accu mulation</w>
exce ss</w>
al ready</w>
1 9
ec t</w>
standardis ed</w>
a i</w>
li ke</w>
1 37</w>
as signed</w>
w c</w>
direc t</w>
he pa</w>
n di
ndi r</w>
rc da</w>
s onic</w>
replac ement</w>
degre e</w>
or t</w>
block age</w>
s par
experi enced</w>
produc ed</w>
constru ction</w>
rot ational</w>
de li
rot ating</w>
function ality</w>
automati cally</w>
depen ding</w>
conver ters</w>
t ures</w>
el ements</w>
proper ly</w>
d ul
s ul
te x
reli ef</w>
min ation</w>
ac k</w>
cylin der</w>
indic ation</w>
avail ability</w>
ser ial</w>
ver sion</w>
circu it</w>
inte gri
integri ty</w>
sub mitted</w>
th or
denomin ators</w>
prev ent</w>
af fected</w>
mark et</w>
activ ate</w>
excee ds</w>
al es</w>
nu mb
cho ose</w>
do sing</w>
ag es</w>
odo meter</w>
satis fy</w>
sub jected</w>
ov chev
∙ </w>
9 2</w>
cho ice</w>
li er</w>
sub ject</w>
prev ented</w>
ti ming</w>
evalu ated</w>
g h</w>
no z
noz z
nozz le</w>
me tres</w>
lon git
longit u
ex tr
pres sures</w>
devi ations</w>
t ment</w>
stabiliz ation</w>
radi us</w>
feas ible</w>
t ors</w>
loa ded</w>
illu str
therm al</w>
ex po
pen e
pene tr
analy tical</w>
z ed</w>
regi on</w>
gi ve</w>
inter fer
aero so
aeroso l</w>
we e
pre conditioned</w>
ab normally</w>
be st</w>
r m
rm sse</w>
g co</w>
by passing</w>
weigh ting</w>
s cre
ch c</w>
000 9
000 5</w>
m k</w>
lo gy</w>
re charge
recharge able</w>
func tional</w>
abs ence</w>
establish </w>
re duc
consider ing</w>
me e
mee ting</w>
in di
f o
ex ist
l ater</w>
co me</w>
recommend ations</w>
t ter</w>
dif fer</w>
s c
co up
m er</w>
regar ding</w>
fr ic
drive train</w>
poly no
polyno mi
polynomi al</w>
ari ly</w>
e m</w>
charg er</w>
perman ent</w>
m er
li tres</w>
provi ding</w>
de fe
ac u
sh ut</w>
tex t</w>
likel y</w>
age ment</w>
cle ar
reach es</w>
comp ens
op tions</w>
pen ding</w>
beco mes</w>
au thor
jus tification</w>
t amp
pro gra
progra m
defec tive</w>
sa fe</w>
enclo sures</w>
tak ing</w>
concer ned</w>
numb ers</w>
excee ded</w>
t urb
is su
i shed</w>
1 29</w>
lo g
tan ks</w>
allow s</w>
af ter
0 3</w>
as su
s m</w>
re f</w>
squ are</w>
estim ated</w>
y a
ya w</w>
up per</w>
al le
w id
wid th</w>
mo vable</w>
en vi
envi ron
war med</w>
kel vin</w>
main tain</w>
ver tical</w>
f ans</w>
trans duc
volu metric</w>
flow s</w>
su i
sui table</w>
lon ger</w>
sp n</w>
effici encies</w>
accep ted</w>
d co</w>
fc cs</w>
zero ed</w>
prepar ed</w>
interpol ati
k fuel</w>
u bec
ubec c
ubecc p</w>
c co</w>
sp anned</w>
ex ec
exec u
5 20</w>
scre ening</w>
1 22</w>
wor l
mo tor</w>
perform ing</w>
re fl
al i
vari ous</w>
g ro
gro up
ke y</w>
l ad
lad en</w>
b wc</w>
classi fier</w>
sub sonic</w>
ribu tion</w>
re ach</w>
pres ence</w>
act ing</w>
defe at</w>
r pm</w>
manifol d</w>
l ay
con text</w>
mal functions</w>
introduc ed</w>
le ad</w>
gr ad
s can</w>
comm un
commun ic
num erat
ma ke</w>
s no
examp les</w>
prote ction</w>
p s</w>
s ales</w>
adequ ate</w>
di g
jus tified</w>
o w
v t</w>
re charge</w>
g ing</w>
sh ap
val ves</w>
comm on</w>
so me</w>
m asses</w>
m ust</w>
t f</w>
lo t</w>
e ously</w>
detail s</w>
attach ed</w>
re pl
repl en
i sh
initi ated</w>
occur red</w>
oper ate</w>
ad d
add res
n max</w>
ho mo
ex tre
extre me</w>
ou gh</w>
ang le</w>
op posi
opposi te</w>
direc tions</w>
par alle
paralle l</w>
ap s</w>
extr ap
extrap ol
n one</w>
weigh ed</w>
soak ed</w>
coll ection</w>
mo ve
re jected</w>
stabili sed</w>
sub stitu
li ers</w>
inter national</w>
v low</w>
dy no</w>
abs or
satis fied</w>
mati c</w>
dilu te</w>
re volu
l fe</w>
inter ce
leak s</w>
ur ed</w>
penetr ation</w>
ph o
pho to
pur ity</w>
l li
c ity</w>
per p</w>
dec ide</w>
b at</w>
r pa</w>
dr y
faul ty</w>
v w</w>
s co
ab bre
abbre vi
conduc t</w>
kilo metre</w>
over all</w>
a do
2 00
re duce</w>
vari ation</w>
mi t
indi a</w>
form ul
out come</w>
amen ded</w>
flu id</w>
samp ler</w>
ion ization</w>
in fr
h fid</w>
n du
ndu v</w>
cu tter</w>
p cf</w>
p dp</w>
p ts</w>
combin ations</w>
sho w</w>
al w
alw ays</w>
gi ves</w>
pro duce</w>
stati on
station ary</w>
wlt cs</w>
wh ose</w>
me tal</w>
constru cted</w>
er ed</w>
re fuelling</w>
sel f</w>
spar k</w>
st s</w>
b ack</w>
compens ate</w>
air flow</w>
valid ate</w>
annex es</w>
comp lies</w>
v ibr
connec tions</w>
re tained</w>
bec ause</w>
enc ing</w>
y n
ch ron
regar ded</w>
atmosp here</w>
char co
charco al</w>
configur ations</w>
g r</w>
me ss
multi pl
appen dic
appendic es</w>
h al
hal f</w>
n d</w>
vie w</w>
ovchev s</w>
imp act</w>
simul tan
simultan eously</w>
p atter
patter n</w>
reas on</w>
cri </w>
to o</w>
interrup ted</w>
por t</w>
k ed</w>
g g
man dat
mandat ory</w>
swit ch</w>
di vi
sp ac
equ ally</w>
stand still</w>
request ed</w>
to ge
toge ther</w>
le g
estim ate</w>
coast down
coastdown s</w>
longitu d
longitud inal</w>
fulfil s</w>
compar tment</w>
align ed</w>
instru mentation</w>
el ap
elap sed</w>
ith </w>
dyna mo
absor ption</w>
n a</w>
transduc er</w>
homo g
homog en
ex trac
practi ce</w>
revolu tions</w>
interce pt</w>
n or</w>
en e</w>
ens ured</w>
re turned</w>
supp ort</w>
mo l</w>
‘ </w>
no men
nomen cl
nomencl ature</w>
v h</w>
c x
4 29</w>
correspon ds</w>
2 8
strea ms</w>
p ay
f ra
adap tion</w>
h cld</w>
remo ve</w>
consist ency</w>
dry er</w>
n t</w>
c m
sco pe</w>
abbrevi ations</w>
exten sion</w>
transmissi ons</w>
calibr ations</w>
por table</w>
form at</w>
tran sp
refl ect</w>
ch ed</w>
pres ented</w>
tr u
or ific
infr ared</w>
trans fer</w>
p tt</w>
con stitu
cool ed</w>
p ist
pist on</w>
correc t
correct ness</w>
du le</w>
accep t
f ying</w>
mix tures</w>
el ement</w>
v acu
vacu um</w>
comp ri
in side</w>
equ als</w>
cont roller</w>
au di
tri m</w>
pe ak</w>
s is</w>
restric ted</w>
t rou
trou ble</w>
rel ating</w>
numerat ors</w>
fac ility</w>
gran ted</w>
lu b
lub ric
pro hib
sub stan
substan ti
pro of</w>
acce ssible</w>
nnnn nnnn
influ encing</w>
ch es</w>
plu g</w>
g ear
stan ding</w>
agre ed</w>
e gr</w>
st ro
stro ke</w>
displ ay</w>
establi shed</w>
rando m</w>
selec ting</w>
sour ces</w>
el i
recommend ation</w>
1 90</w>
pass es</w>
bra ke</w>
err ors</w>
bo un
ob ser
st and</w>
man ded</w>
fail ures</w>
main t
u ally</w>
ab out</w>
after treatment</w>
f ree
p tions</w>
emp lo
x x</w>
docu mented</w>
cur ves</w>
downscal ed</w>
th igh</w>
divi ding</w>
spac ed</w>
1 30</w>
dis engaged</w>
t ables</w>
ro ot</w>
cle an</w>
ite ms</w>
h r</w>
minimi se</w>
0 15</w>
el d</w>
posi tions</w>
minimi ze</w>
out liers</w>
ssi ve</w>
1 000</w>
facili ties</w>
dynamo meters</w>
y i
v high</w>
aro und</w>
smo oth</w>
sto pped</w>
ra tes</w>
op tion
option ally</w>
fig ures</w>
th ro
thro at</w>
differ ential</w>
introduc ing</w>
weigh ts</w>
divid er</w>
fc p</w>
typ ical</w>
disper se</w>
cer tification</w>
op en
open ed</w>
c ables</w>
6 00</w>
comp ressi
kilo gram</w>
cen ti
0 8</w>
continu e</w>
pn cd</w>
pm cd</w>
k low</w>
k med</w>
ac com
accom mo
@ </w>
hist o
histo gram</w>
sto ic
stoic h
stoich io
fra me</w>
re pairs</w>
regi str
characteri zed</w>
vo ided</w>
f ar</w>
h gnss</w>
pm r
lo ts</w>
in ve
inve sti
investi g
photo s</w>
du ty</w>
u f</w>
s r
sr c</w>
dec l
up dated</w>
develo p
develop ed</w>
w ide</w>
re ali
reali sti
realisti c</w>
repres enting</w>
group s</w>
1 75</w>
exist ing</w>
disper sive</w>
oxid ation</w>
sc r</w>
cul ation</w>
linear ization</w>
ad just</w>
accept ance</w>
in depend
independ ently</w>
wor k</w>
l ers</w>
in dependent</w>
peri ph
periph eral</w>
at tri
attri bu
l ying</w>
reason ably</w>
en coun
encoun tered</w>
previ ously</w>
v enti
lay er</w>
v enting</w>
oper ator</w>
comp lied</w>
re ce
clear ly</w>
cataly sts</w>
ca used</w>
provi sion</w>
diagno sis</w>
uni que</w>
ex i
mi t</w>
w ri
b ing</w>
tamp ering</w>
appro vals</w>
determin es</w>
exten sions</w>
appro ve</w>
tech no
ag ree</w>
an ts</w>
1 50
150 31</w>
ri ght</w>
no dal</w>
pre li
preli min
prelimin ary</w>
du al</w>
c ng</w>
ob tain</w>
exce ption</w>
techn i
canist ers</w>
fo und</w>
acti vity</w>
z ing</w>
stru c
additi ve</w>
comm er
r u
b b
satis fact
satisfact ory</w>
issu ed</w>
re fer</w>
→ </w>
obser ved</w>
as h
mess age</w>
ure a</w>
la test</w>
connec tor</w>
he ad</w>
pro b
prob le
ish ing</w>
re ad</w>
wh y</w>
as sure</w>
incorpor ated</w>
no te</w>
depen ds</w>
8 7</w>
1 7
1 40</w>
d s
inte ger</w>
cer tain</w>
ver su
versu s</w>
n gear</w>
dec eler
n i</w>
n k</w>
occur r
occurr ence</w>
compar is
turb ul
lo cal</w>
g aps</w>
g u
mark ed</w>
extrapol ation</w>
l r</w>
fric tion</w>
k es</w>
move ment</w>
compar ing</w>
degre es</w>
off set</w>
yi el
lat eral</w>
f j
repor ts</w>
posi tioned</w>
adjust ing</w>
{ </w>
} </w>
assess ed</w>
over view</w>
ti ght</w>
cycl one</w>
electr ically</w>
pip es</w>
el as
elas to
connec tors</w>
sche matic</w>
pip ing</w>
dep ression</w>
correc tive</w>
gra vi
gravi metric</w>
cont a
ic k</w>
st op
dia meters</w>
fil tered</w>
d ence</w>
so ot</w>
mi d</w>
op ti
r f
mon th</w>
el y</w>
accur ately</w>
ch il
di git
dis connected</w>
at ur
0 7
0 6
m gas</w>
fc c</w>
compressi bility</w>
repres ented</w>
cu b
mi lli
uf cycle</w>
interpolati </w>
pre calculated</w>
en ables</w>
vibr ation</w>
ch ci</w>
re filled</w>
al one</w>
her t
hert z</w>
stoichio metric</w>
pay load</w>
dis able</w>
iup r</w>
ma w</w>
h map</w>
7 99</w>
car </w>
continu ed</w>
concer ning</w>
comp res
compres sed</w>
worl d</w>
amen d
amend ment</w>
g lo
glo b
reduc ing</w>
sel y</w>
a m</w>
20 17</w>
ap f</w>
orific e</w>
evapor ation</w>
vi ol
pn d</w>
che m
chem ical</w>
oxid es</w>
le an</w>
rec ir
recir culation</w>
s we
swe pt</w>
tw ice</w>
repres ents</w>
par ent</w>
bas ic</w>
repe at
tw in</w>
rol lers</w>
situ ation</w>
electr ic
electric ity</w>
in es</w>
bl end</w>
on ally</w>
cm v
cmv r</w>
compri sing</w>
stor e</w>
comp rise</w>
pump s</w>
ar ri
ac compli
accompli shed</w>
me mor
memor y</w>
ti fy</w>
man agement</w>
rece i
ca using</w>
m u
confir m</w>
ser vic
identi fier</w>
communic ation</w>
faul ts</w>
oper ational</w>
exi st</w>
e able</w>
out lin
outlin ed</w>
repres ent</w>
asse mb
cont rolling</w>
c ed</w>
beco me</w>
pu bl
ow ner</w>
c vt</w>
r ating</w>
com mon
common ly</w>
as m</w>
chron ous</w>
sho ws</w>
cer tified</w>
no t
not with
notwith standing</w>
l amb
lamb da</w>
1 60</w>
conduc ting</w>
str ai
strai ght</w>
p lo
plo tted</w>
flow chart</w>
2 50</w>
ann ual</w>
manufact ure</w>
rando m
random ly</w>
n ature</w>
comple tely</w>
di stances</w>
cho o
leak age</w>
le ts</w>
e asi
easi ly</w>
remo ving</w>
interi or</w>
ad b
adb lu
adblu e</w>
expl ic
correspon d</w>
de f
maint aining</w>
ir regul
irregul ar
irregular ities</w>
t down</w>
restric tion</w>
su c
suc ce
correc tly</w>
speci fy</w>
con sequences</w>
cl a
cla uses</w>
expl an
explan ation</w>
mal functioning</w>
addres s</w>
1 4
2 5
fi les</w>
acceler ations</w>
9 0
t medium</w>
le ver</w>
1 10</w>
exclu sion</w>
gra di
gradi ent</w>
tran si
resi stances</w>
en ding</w>
mon o
1 13</w>
the m</w>
up shift</w>
comparis on</w>
th ough</w>
moun ting</w>
i de
supp lied</w>
moun tain</w>
lo ad
load s</w>
p an
lu gg
lugg age</w>
tre ad</w>
environ ment</w>
bra kes</w>
acceler ated</w>
avo ided</w>
over lap</w>
over l
overl apped</w>
war ds</w>
exce ssive</w>
k ee
v j
t mr</w>
af r</w>
0 1
ig n</w>
s li
fj dyno</w>
f j</w>
j th</w>
stabili s
stabilis ation</w>
ar rang
illustr ated</w>
homogen eous</w>
de w</w>
elasto mer</w>
expo sure</w>
mix ed</w>
re yn
reyn ol
reynol ds</w>
vari ations</w>
han d
expo sed</w>
s m
sm all</w>
in vol
invol ved</w>
qu ick</w>
ne ither</w>
y l
yl ene</w>
integr ating</w>
resi dence</w>
interfer e</w>
men tal</w>
opti mi
o z
wh en
when ever</w>
classi fied</w>
the or
theor e
theore tical</w>
wee k</w>
de dic
dedic ated</w>
ex t
rele ased</w>
stop s</w>
con clu
so on</w>
regener ative</w>
dis charging</w>
cx hy
cxhy o
cxhyo z</w>
r a</w>
un realistic</w>
cub ic</w>
0 9</w>
4 80</w>
ov c
disab led</w>
c ss
css m</w>
aer dec</w>
ec ind</w>
k wltc</w>
k high</w>
re vie
revie w
review ed</w>
recor d
record ings</w>
reli able</w>
ch cf</w>
m d</w>
comple ting</w>
bu il
do ors</w>
pe dal</w>
m hc</w>
ho t
hot test</w>
disab le
disable ment</w>
road s</w>
free ze</w>
er ased</w>
com manded</w>
lin k</w>
ne tw
netw or
networ k</w>
no ise</w>
registr ation</w>
mat ch</w>
comple ten
completen ess</w>
· </w>
q m</w>
u gas</w>
001 5
001 52</w>
001 10</w>
en g</w>
valid ating</w>
r p
rp ak</w>
road grade</w>
he ad
head er</w>
regi ons</w>
indu str
industr y</w>
1 26</w>
ess ential</w>
meth odo
methodo logy</w>
uni form</w>
develo pment</w>
r d</w>
te e</w>
1 8
che mi
chemi lu
chemilu min
chemilumin e
f s
q </w>
p a
al ph
f s</w>
n i
n on
rec i
agre es</w>
rel ati
mo dule</w>
cont ribution</w>
un changed</w>
st ing</w>
on g
ac ts</w>
tr ail
act or</w>
deli ver</w>
temp or
perman ently</w>
flu c
fluc tu
in directly</w>
exclu si
exclusi vely</w>
e mer
consu ming</w>
stor ing</w>
v en
regar d
regard less</w>
b or
en ded</w>
v ent</w>
par king</w>
cap ability</w>
si ble</w>
un able</w>
ir re
t le</w>
in spec
inspec tion</w>
servic ing</w>
t ain
read in
readin ess</w>
er as
continu ity</w>
wri t
writ ten</w>
descri bing</w>
00 7</w>
imp le
techno logy</w>
program me</w>
bio diesel</w>
descri be</w>
sno w</w>
mi ssing</w>
prote cted</w>
as so
asso ci
associ ated</w>
requi ring</w>
dig it</w>
prohib ition</w>
asse ss</w>
con fi
dul y</w>
publ ic</w>
b i
w mi</w>
fi f
clut ches</w>
coup led</w>
gear bo
aero dynamics</w>
fuel ed</w>
engine 's</w>
lar g
larg est</w>
effec tively</w>
der s</w>
shap e</w>
su per
circu m
ad mini
admini str
administr ative</w>
car r
multipl ic
multiplic ative</w>
commer c
commerc ial</w>
min ated</w>
ch ap
chap ter</w>
ca uses</w>
fin ished</w>
vo id</w>
dec i
normal ised</w>
t p</w>
dig its</w>
suffici ently</w>
is ol
stabili se</w>
out lets</w>
o wn</w>
li tr
litr e</w>
replen ished</w>
normal ity</w>
min ate</w>
imp or
ear lier</w>
interrup tion</w>
s en
p id</w>
ser vices</w>
de activation</w>
en ter</w>
n ers</w>
of ten</w>
emplo y
employ ed</w>
check su
checksu ms</w>
d d
tru e</w>
regul ated</w>
o em</w>
act u
occur ring</w>
deli ver
deliver ed</w>
re mar
6 51</w>
8 48</w>
num er
eng agement</w>
cen ding</w>
c el
assu med</w>
decre ase</w>
i max</w>
defin es</w>
dist ribution</w>
ul ar</w>
shap es</w>
sno w
ar ti
arti fici
manu ally</w>
re produc
dep th</w>
sub trac
subtrac ted</w>
harmon ic</w>
influ ences</w>
to wards</w>
minimi sed</w>
indic ates</w>
conver g
kee p</w>
emp ir
empir ical</w>
b t</w>
rr ind</w>
c c</w>
sli pp
slipp age</w>
b low
b lower</w>
b d</w>
sec </w>
h or
hor iz
horiz on
00 1</w>
extrac t</w>
n ear</w>
10 5</w>
00 15</w>
dis charge</w>
in ner</w>
oper ations</w>
f as
integr ation</w>
prop ylene</w>
c ks</w>
period ic</w>
assu ming</w>
en tering</w>
st age</w>
un corrected</w>
st ages</w>
3 50</w>
te trac
tetrac on
tetracon tane</w>
⁄ </w>
n in</w>
no ut</w>
month ly</w>
m ic
there after</w>
oz on
ozon ator</w>
2 7
for ced</w>
poly disperse</w>
pro ve</w>
substitu ted</w>
explic it
explicit ly</w>
mit ting</w>
sec tions</w>
digit al</w>
sh </w>
weigh ings</w>
m m
off sets</w>
amp </w>
k wh</w>
e e</w>
s atur
2 25</w>
bo o
re ec
reec i</w>
break s</w>
ds j</w>
formul a</w>
re co
cycl ing</w>
po ten
poten ti
lat ched</w>
re ten
reten tion</w>
res ol
pur ging</w>
compo sed</w>
ri g</w>
execu tion</w>
con sul
f eed</w>
an k</w>
adequ ately</w>
ing u
defici encies</w>
grad es</w>
deterior ated</w>
facili t
20 16</w>
at or
audi t</w>
dep ic
mi dc</w>
m ag
chil ler</w>
to t</w>
q maw</w>
000 480</w>
001 6
001 53</w>
001 11</w>
percen ti
percenti le</w>
5 19</w>
3 20</w>
7 98</w>
hist ory</w>
rec all</w>
c amp
camp ai
campai gn</w>
di d</w>
worl dw
worldw ide</w>
harmon ized</w>
g vw</w>
1 16</w>
annex ure</w>
as p
ado p
adop ted</w>
transp o
w p</w>
par ty</w>
glob al</w>
200 9</w>
ado pt</w>
co ast</w>
ai red</w>
responsi bility</w>
e u</w>
cf d</w>
cf o</w>
al de
alde hy
aldehy de</w>
de fl
ch ro
chro mat
chromat o
l as
n at
nat ural</w>
ol ef
rc b</w>
do p</w>
reci pro
rot ary</w>
calibr ate</w>
ai ms</w>
measur able</w>
evalu ate</w>
pu ts</w>
wh er
tak es</w>
op po
c ab
coup ling</w>
der ed</w>
cu sto
resi sting</w>
fric tional</w>
approx im
tr acting</w>
repeat able</w>
al located</w>
trail er</w>
coas ting</w>
decre ases</w>
mach ines</w>
prim arily</w>
re charging</w>
emer g
emerg ency</w>
conver ting</w>
mo dul
ven ess</w>
dist in
distin ct</w>
den si
densi ties</w>
de posi
flu or
multi layer</w>
detec ting</w>
identi fying</w>
no tify</w>
for ms</w>
it self</w>
as pi
me tering</w>
mu ch</w>
grad ual</w>
di men
th rot
throt tle</w>
pur su
mp </w>
rou t
eras ing</w>
com mand</w>
sub mit</w>
for ese
forese eable</w>
particul ar
establish ment</w>
identi fy</w>
author ities</w>
venti lation</w>
op ening</w>
ther ed</w>
author ised</w>
m able</w>
e k</w>
substanti ally</w>
str ic
stric tly</w>
confi d
confid ential</w>
applic ability</w>
attribu ted</w>
nnnnnnnn nnnn
nnnnnnnnnnnn nn
nnnnnnnnnnnnnn n</w>
cor e</w>
ph y
phy s
phys ical</w>
i ous</w>
me mb
no tified</w>
techni que</w>
cylin ders</w>
ox i
oxi di
oxidi zing</w>
fil tering</w>
p ul
p as
multi </w>
li gh
consi der</w>
ad ver
additi onally</w>
circum stances</w>
cre ate</w>
under taken</w>
vari ants</w>
bb er</w>
fail s</w>
super vi
in form</w>
⋯ </w>
deci sions</w>
3 70</w>
drive line</w>
ev s</w>
c con
ccon st</w>
m arg
marg in</w>
choo ses</w>
fe ature</w>
under sto
understo od</w>
vi su
visu al</w>
inten sity</w>
tur n</w>
ay ed</w>
tan t</w>
in correct</w>
rec tified</w>
situ ations</w>
selec t</w>
appro ach</w>
re started</w>
ow ners</w>
t a</w>
ver sions</w>
su dd
sudd en</w>
h i
diag ra
practi cal</w>
docu ments</w>
sign ature</w>
per s
or g
org an
ent ation</w>
x xx</w>
1 6
14 77</w>
1 62</w>
pro files</w>
drive ability</w>
proble ms</w>
imp ro
90 6</w>
1 11</w>
individ ually</w>
reas ons</w>
shif ting</w>
prescri ptions</w>
n li
nli m</w>
t ons</w>
deceler ations</w>
cover s</w>
i ref</w>
us age</w>
de sign
design s</w>
turbul ence</w>
boun dary</w>
v ec
vec tor</w>
ag encies</w>
pe ak
peak ed</w>
snow fl
snowfl ak
snowflak e</w>
p ms</w>
r r</w>
w ai
wai ved</w>
fu ture</w>
reduc ed</w>
bra king</w>
ste ering</w>
necess arily</w>
re jection</w>
re calculated</w>
to p</w>
trave l</w>
fl ag
flag ged</w>
qu es</w>
bet ter</w>
converg ence</w>
comp ensation</w>
rr h</w>
p at
yiel ds</w>
imp ose</w>
correc ting</w>
f dj</w>
t j</w>
rec tan
rectan g
horizon tal</w>
loc ations</w>
ex hib
differ s</w>
de position</w>
conduc tive</w>
g rounded</w>
electro static</w>
ex it</w>
tail pipes</w>
in sul
ti vity</w>
therm ally</w>
s cru
b bed</w>
 </w>
w ing</w>
en sures</w>
la min
lamin ar</w>
calibr ating</w>
sen si
restric tor</w>
res et</w>
si x</w>
q ssv</w>
si </w>
reason able</w>
en ough</w>
in jected</w>
ion isation</w>
o ms</w>
in stance</w>
imp actor</w>
typ ically</w>
classi fication</w>
ti p</w>
assemb ly</w>
decre ased</w>
6 8
st d</w>
environ mental</w>
li fied</w>
bu o
buo y
buoy anc
buoyanc y</w>
leg al</w>
7 00</w>
z ation</w>
dilu ting</w>
mic ro
electr on
electron ically</w>
pn cs</w>
electro meter</w>
ge o
pre jud
prejud ice</w>
decl are</w>
consu mp
request s</w>
sub traction</w>
scal ed</w>
on es</w>
0 33</w>
linear ly</w>
demonstr ates</w>
control s</w>
regener ations</w>
dr ained</w>
conta mination</w>
pu shed</w>
initi ation</w>
sol ely</w>
d ly</w>
d ust</w>
ite m</w>
beg in</w>
conclu sion</w>
re checked</w>
ri </w>
amp ere</w>
a h</w>
∫ </w>
4 82</w>
wi l
wil l
will ans</w>
altern ator</w>
06 11</w>
00 8</w>
mi x</w>
c ch</w>
l h</w>
v ented</w>
8 25</w>
0 4</w>
3 08</w>
ex emp
exemp ted</w>
ec y
ecy cle</w>
interpolati o</w>
aer ave</w>
ec final</w>
eaer final</w>
aer ind</w>
eaer ind</w>
weigh te</w>
u be
ube st
ubest p</w>
normal ized</w>
2 3
ap er
w all</w>
begin s</w>
wee ks</w>
wit ness</w>
w ash
wash er</w>
dis connection</w>
pro po
emp ti
empti ed</w>
buil d</w>
mo ved</w>
constitu ents</w>
c ro
8 90</w>
ric h</w>
b ank</w>
ex per
repe at</w>
oth ers</w>
4 40</w>
reco gn
comp re
compre h
compreh en
comprehen sive</w>
boo st</w>
ingu ishing</w>
execu ted</w>
lo o
loo p</w>
coun ters</w>
gran ting</w>
incre ment</w>
numer ical</w>
re su
resu me</w>
respon ses</w>
facilit ate</w>
bl ending</w>
milli on</w>
electro mag
electromag ne
electromagne tic</w>
interfer ences</w>
sho cks</w>
vari ability</w>
un duly</w>
un diluted</w>
e o</w>
9 90</w>
trace ably</w>
fulfil l</w>
transi ent</w>