{
  "<pad>": 0,
  "<unk>": 1,
  "<bos>": 2,
  "<eos>": 3,
  ".</w>": 4,
  "the</w>": 5,
  ",</w>": 6,
  "of</w>": 7,
  "2</w>": 8,
  "1</w>": 9,
  "3</w>": 10,
  "be</w>": 11,
  "shall</w>": 12,
  "0</w>": 13,
  "to</w>": 14,
  ")</w>": 15,
  "(</w>": 16,
  "and</w>": 17,
  "in</w>": 18,
  "a</w>": 19,
  "4</w>": 20,
  "for</w>": 21,
  "/</w>": 22,
  "is</w>": 23,
  "-</w>": 24,
  "test</w>": 25,
  "5</w>": 26,
  "vehicle</w>": 27,
  "6</w>": 28,
  ";</w>": 29,
  "this</w>": 30,
  "km</w>": 31,
  "annex</w>": 32,
  "8</w>": 33,
  "or</w>": 34,
  "with</w>": 35,
  "7</w>": 36,
  "paragraph</w>": 37,
  ":</w>": 38,
  "as</w>": 39,
  "at</w>": 40,
  "=</w>": 41,
  "h</w>": 42,
  "i</w>": 43,
  "if</w>": 44,
  "that</w>": 45,
  "speed</w>": 46,
  "c</w>": 47,
  "by</w>": 48,
  "according</w>": 49,
  "cycle</w>": 50,
  "9</w>": 51,
  "on</w>": 52,
  "fuel</w>": 53,
  "type</w>": 54,
  "b</w>": 55,
  "\"</w>": 56,
  "[</w>": 57,
  "]</w>": 58,
  "not</w>": 59,
  "mass</w>": 60,
  "\u00d7</w>": 61,
  "system</w>": 62,
  "phase</w>": 63,
  "s</w>": 64,
  "emissions</w>": 65,
  "g</w>": 66,
  "an</w>": 67,
  "time</w>": 68,
  "applicable</w>": 69,
  "vehicles</w>": 70,
  "from</w>": 71,
  "appendix</w>": 72,
  "used</w>": 73,
  "m</w>": 74,
  "are</w>": 75,
  "co</w>": 76,
  "energy</w>": 77,
  "per</w>": 78,
  "may</w>": 79,
  "\u2212</w>": 80,
  "charge</w>": 81,
  "flow</w>": 82,
  "emission</w>": 83,
  "exhaust</w>": 84,
  "case</w>": 85,
  "electric</w>": 86,
  "where</w>": 87,
  "manufacturer</w>": 88,
  "following</w>": 89,
  "table</w>": 90,
  "all</w>": 91,
  "+</w>": 92,
  "than</w>": 93,
  "10</w>": 94,
  "step</w>": 95,
  "consumption</w>": 96,
  "procedure</w>": 97,
  "calculated</w>": 98,
  "road</w>": 99,
  "load</w>": 100,
  "temperature</w>": 101,
  "number</w>": 102,
  "each</w>": 103,
  "l</w>": 104,
  "during</w>": 105,
  "e</w>": 106,
  "reference</w>": 107,
  "measured</w>": 108,
  "gas</w>": 109,
  "engine</w>": 110,
  "no</w>": 111,
  "using</w>": 112,
  "output</w>": 113,
  "data</w>": 114,
  "method</w>": 115,
  "requirements</w>": 116,
  "within</w>": 117,
  "which</w>": 118,
  "family</w>": 119,
  "measurement</w>": 120,
  "value</w>": 121,
  "wh</w>": 122,
  "interpolation</w>": 123,
  "described</w>": 124,
  "determined</w>": 125,
  "n</w>": 126,
  "air</w>": 127,
  "agency</w>": 128,
  "concentration</w>": 129,
  "values</w>": 130,
  "cent</w>": 131,
  "after</w>": 132,
  "applied</w>": 133,
  "least</w>": 134,
  "regulation</w>": 135,
  "one</w>": 136,
  "\u00b1</w>": 137,
  "j</w>": 138,
  "results</w>": 139,
  "conditions</w>": 140,
  "dynamometer</w>": 141,
  "point</w>": 142,
  "between</w>": 143,
  "\u00b0</w>": 144,
  "range</w>": 145,
  "any</w>": 146,
  "calculation</w>": 147,
  "considered</w>": 148,
  "100</w>": 149,
  "means</w>": 150,
  "individual</w>": 151,
  "kg</w>": 152,
  "average</w>": 153,
  "factor</w>": 154,
  "pressure</w>": 155,
  "%</w>": 156,
  "calibration</w>": 157,
  "sample</w>": 158,
  "sampling</w>": 159,
  "period</w>": 160,
  "final</w>": 161,
  "p</w>": 162,
  "d</w>": 163,
  "depleting</w>": 164,
  "correction</w>": 165,
  "ovc</w>": 166,
  "mode</w>": 167,
  "equation</w>": 168,
  "second</w>": 169,
  "it</w>": 170,
  "k</w>": 171,
  "sustaining</w>": 172,
  "gear</w>": 173,
  "only</w>": 174,
  "reess</w>": 175,
  "figure</w>": 176,
  "20</w>": 177,
  "obd</w>": 178,
  "low</w>": 179,
  "12</w>": 180,
  "when</w>": 181,
  "wltp</w>": 182,
  "t</w>": 183,
  "criteria</w>": 184,
  "set</w>": 185,
  "specified</w>": 186,
  "start</w>": 187,
  "defined</w>": 188,
  "analyser</w>": 189,
  "f</w>": 190,
  "tank</w>": 191,
  "tests</w>": 192,
  "maximum</w>": 193,
  "first</w>": 194,
  "class</w>": 195,
  "more</w>": 196,
  "approval</w>": 197,
  "x</w>": 198,
  "15</w>": 199,
  "rate</w>": 200,
  "dilution</w>": 201,
  "operation</w>": 202,
  "\u2264</w>": 203,
  "specific</w>": 204,
  "required</w>": 205,
  "distance</w>": 206,
  "available</w>": 207,
  "paragraphs</w>": 208,
  "mco</w>": 209,
  "hevs</w>": 210,
  "use</w>": 211,
  "high</w>": 212,
  "total</w>": 213,
  "particle</w>": 214,
  "performed</w>": 215,
  "\u0305</w>": 216,
  "over</w>": 217,
  "clause</w>": 218,
  "two</w>": 219,
  "have</w>": 220,
  "yes</w>": 221,
  "result</w>": 222,
  "cd</w>": 223,
  "testing</w>": 224,
  "pems</w>": 225,
  "control</w>": 226,
  "such</w>": 227,
  "driven</w>": 228,
  "volume</w>": 229,
  "response</w>": 230,
  "selected</w>": 231,
  "tested</w>": 232,
  "driving</w>": 233,
  "medium</w>": 234,
  "before</w>": 235,
  "coefficient</w>": 236,
  "corrected</w>": 237,
  "under</w>": 238,
  "14</w>": 239,
  "30</w>": 240,
  "23</w>": 241,
  "up</w>": 242,
  "other</w>": 243,
  "chassis</w>": 244,
  "\u2026</w>": 245,
  "based</w>": 246,
  "ppm</w>": 247,
  "determination</w>": 248,
  "40</w>": 249,
  "same</w>": 250,
  "run</w>": 251,
  "accordance</w>": 252,
  "13</w>": 253,
  "end</w>": 254,
  "v</w>": 255,
  "standard</w>": 256,
  "can</w>": 257,
  "has</w>": 258,
  "\u2206</w>": 259,
  "50</w>": 260,
  "power</w>": 261,
  "wltc</w>": 262,
  "additional</w>": 263,
  "recorded</w>": 264,
  "\u2013</w>": 265,
  "11</w>": 266,
  "above</w>": 267,
  "ratio</w>": 268,
  "trip</w>": 269,
  "acceleration</w>": 270,
  "less</w>": 271,
  "weighted</w>": 272,
  "conformity</w>": 273,
  "zero</w>": 274,
  "out</w>": 275,
  "wind</w>": 276,
  "25</w>": 277,
  "novc</w>": 278,
  "rounded</w>": 279,
  "systems</w>": 280,
  "fchvs</w>": 281,
  "request</w>": 282,
  "\u2211</w>": 283,
  "equipment</w>": 284,
  "part</w>": 285,
  "filter</w>": 286,
  "coefficients</w>": 287,
  "driver</w>": 288,
  "declared</w>": 289,
  "urban</w>": 290,
  "carbon</w>": 291,
  "its</w>": 292,
  "42</w>": 293,
  "cycles</w>": 294,
  "ageing</w>": 295,
  "these</w>": 296,
  "catalyst</w>": 297,
  "accuracy</w>": 298,
  "level</w>": 299,
  "operating</w>": 300,
  "43</w>": 301,
  "r</w>": 302,
  "order</w>": 303,
  "efficiency</w>": 304,
  "arithmetic</w>": 305,
  "45</w>": 306,
  "coastdown</w>": 307,
  "minimum</w>": 308,
  "seconds</w>": 309,
  "components</w>": 310,
  "equal</w>": 311,
  "reserved</w>": 312,
  "parameters</w>": 313,
  "ing</w>": 314,
  "resistance</w>": 315,
  "44</w>": 316,
  "particulate</w>": 317,
  "18</w>": 318,
  "60</w>": 319,
  "including</w>": 320,
  "48</w>": 321,
  "reagent</w>": 322,
  "evaporative</w>": 323,
  "35</w>": 324,
  "component</w>": 325,
  "measurements</w>": 326,
  "21</w>": 327,
  "ambient</w>": 328,
  "36</w>": 329,
  "meter</w>": 330,
  "26</w>": 331,
  "1": 332,
  "through</w>": 333,
  "constant</w>": 334,
  "nox</w>": 335,
  "kpa</w>": 336,
  "33</w>": 337,
  "mi</w>": 338,
  "mg</w>": 339,
  "setting</w>": 340,
  "bench</w>": 341,
  "check</w>": 342,
  "re": 343,
  "device</w>": 344,
  "24</w>": 345,
  "lower</w>": 346,
  "positive</w>": 347,
  "equivalent</w>": 348,
  "17</w>": 349,
  "\u2019</w>": 350,
  "canister</w>": 351,
  "production</w>": 352,
  "ng</w>": 353,
  "preconditioning</w>": 354,
  "non</w>": 355,
  "pn</w>": 356,
  "altitude</w>": 357,
  "sensor</w>": 358,
  "rde</w>": 359,
  "see</w>": 360,
  "diluted</w>": 361,
  "off</w>": 362,
  "condition</w>": 363,
  "enclosure</w>": 364,
  "until</w>": 365,
  "41</w>": 366,
  "47</w>": 367,
  "34</w>": 368,
  "below</w>": 369,
  "was</w>": 370,
  "o</w>": 371,
  "sequence</w>": 372,
  "22</w>": 373,
  "either</w>": 374,
  "points</w>": 375,
  "drive</w>": 376,
  "complete</w>": 377,
  "measuring</w>": 378,
  "gaseous</w>": 379,
  "been</w>": 380,
  "difference</w>": 381,
  "exceed</w>": 382,
  "80</w>": 383,
  "46</w>": 384,
  "39</w>": 385,
  "curve</w>": 386,
  "aerodynamic</w>": 387,
  "56</w>": 388,
  "tunnel</w>": 389,
  "motorway</w>": 390,
  "information</w>": 391,
  "into</w>": 392,
  "but</w>": 393,
  "process</w>": 394,
  "rural</w>": 395,
  "ch</w>": 396,
  "span</w>": 397,
  "<</w>": 398,
  "change</w>": 399,
  "16</w>": 400,
  "27</w>": 401,
  "general</w>": 402,
  "gases</w>": 403,
  "also</w>": 404,
  "taken</w>": 405,
  "without</w>": 406,
  "possible</w>": 407,
  "line</w>": 408,
  "phases</w>": 409,
  "95</w>": 410,
  "app</w>": 411,
  "cop</w>": 412,
  "actual</w>": 413,
  "full</w>": 414,
  "c": 415,
  "28</w>": 416,
  "both</w>": 417,
  "higher</w>": 418,
  "tyre</w>": 419,
  "52</w>": 420,
  "three</w>": 421,
  "particles</w>": 422,
  "greater</w>": 423,
  "29</w>": 424,
  "apply</w>": 425,
  "windows</w>": 426,
  "54</w>": 427,
  "hydrocarbon</w>": 428,
  "31</w>": 429,
  "criterion</w>": 430,
  "trace</w>": 431,
  "49</w>": 432,
  "running</w>": 433,
  "ignition</w>": 434,
  "000</w>": 435,
  "53</w>": 436,
  "equipped</w>": 437,
  "carried</w>": 438,
  "appropriate</w>": 439,
  "alternative</w>": 440,
  "verification</w>": 441,
  "representative</w>": 442,
  "regeneration</w>": 443,
  "in": 444,
  "isc</w>": 445,
  "instantaneous</w>": 446,
  "19</w>": 447,
  "analysers</w>": 448,
  "parameter</w>": 449,
  "provided</w>": 450,
  "inlet</w>": 451,
  "whole</w>": 452,
  "utility</w>": 453,
  "32</w>": 454,
  "those</w>": 455,
  "wd</w>": 456,
  "'</w>": 457,
  "ecu</w>": 458,
  "index</w>": 459,
  "51</w>": 460,
  "min</w>": 461,
  "then</w>": 462,
  "application</w>": 463,
  "factors</w>": 464,
  "so</w>": 465,
  "instrument</w>": 466,
  "force</w>": 467,
  "highest</w>": 468,
  "55</w>": 469,
  "service</w>": 470,
  "ii</w>": 471,
  "board</w>": 472,
  "</w>": 473,
  "cvs</w>": 474,
  "given</w>": 475,
  "\u2265</w>": 476,
  "ind</w>": 477,
  "modes</w>": 478,
  "58</w>": 479,
  "63</w>": 480,
  "way</w>": 481,
  "prior</w>": 482,
  "normal</w>": 483,
  "there</w>": 484,
  "></w>": 485,
  "61</w>": 486,
  "ave</w>": 487,
  "pure</w>": 488,
  "different</w>": 489,
  "cs</w>": 490,
  "source</w>": 491,
  "does</w>": 492,
  "b": 493,
  "fulfilled</w>": 494,
  "follows</w>": 495,
  "5": 496,
  "38</w>": 497,
  "62</w>": 498,
  "e": 499,
  "necessary</w>": 500,
  "tolerance</w>": 501,
  "obtained</w>": 502,
  "mean</w>": 503,
  "calibrated</w>": 504,
  "petrol</w>": 505,
  "installed</w>": 506,
  "reached</w>": 507,
  "purpose</w>": 508,
  "decimal</w>": 509,
  "deceleration</w>": 510,
  "procedures</w>": 511,
  "current</w>": 512,
  "pnc</w>": 513,
  "input</w>": 514,
  "corresponding</w>": 515,
  "0": 516,
  "recommended</w>": 517,
  "soak</w>": 518,
  "determine</w>": 519,
  "validation</w>": 520,
  "d": 521,
  "analysis</w>": 522,
  "torque</w>": 523,
  "hc</w>": 524,
  "70</w>": 525,
  "2": 526,
  "frequency</w>": 527,
  "nm</w>": 528,
  "nveh</w>": 529,
  "selection</w>": 530,
  "charging</w>": 531,
  "initial</w>": 532,
  "t": 533,
  "cannot</w>": 534,
  "consecutive</w>": 535,
  "related</w>": 536,
  "y</w>": 537,
  "specifications</w>": 538,
  "limit</w>": 539,
  "tyres</w>": 540,
  "will</w>": 541,
  "transition</w>": 542,
  "malfunction</w>": 543,
  "120</w>": 544,
  "minutes</w>": 545,
  "ecdc</w>": 546,
  "inclusive</w>": 547,
  "extended</w>": 548,
  "pump</w>": 549,
  "balance</w>": 550,
  "engines</w>": 551,
  "reading</w>": 552,
  "last</w>": 553,
  "whichever</w>": 554,
  "un": 555,
  "referred</w>": 556,
  "target</w>": 557,
  "90</w>": 558,
  "drag</w>": 559,
  "velocity</w>": 560,
  "evaluation</w>": 561,
  "fault</w>": 562,
  "code</w>": 563,
  "should</w>": 564,
  "hours</w>": 565,
  "characteristics</w>": 566,
  "nmhc</w>": 567,
  "single</w>": 568,
  "fitted</w>": 569,
  "conducted</w>": 570,
  "upon</w>": 571,
  "meet</w>": 572,
  "#</w>": 573,
  "3": 574,
  "p": 575,
  "fuels</w>": 576,
  "devices</w>": 577,
  "permissible</w>": 578,
  "rrc</w>": 579,
  "area</w>": 580,
  "notification</w>": 581,
  "provide</w>": 582,
  "37</w>": 583,
  "diameter</w>": 584,
  "types</w>": 585,
  "powered</w>": 586,
  "immediately</w>": 587,
  "w</w>": 588,
  "checked</w>": 589,
  "lpg</w>": 590,
  "nmc</w>": 591,
  "methane</w>": 592,
  "al": 593,
  "transmission</w>": 594,
  "vmax</w>": 595,
  "gazette</w>": 596,
  "matrix</w>": 597,
  "hz</w>": 598,
  "monitoring</w>": 599,
  "window</w>": 600,
  "being</w>": 601,
  "pre</w>": 602,
  "concentrations</w>": 603,
  "expected</w>": 604,
  "place</w>": 605,
  "es</w>": 606,
  "ed</w>": 607,
  "linearity</w>": 608,
  "replaced</w>": 609,
  "water</w>": 610,
  "nominal</w>": 611,
  "chamber</w>": 612,
  "75</w>": 613,
  "include</w>": 614,
  "respective</w>": 615,
  "ecac</w>": 616,
  "aes</w>": 617,
  "performance</w>": 618,
  "calculations</w>": 619,
  "ts</w>": 620,
  "n": 621,
  "capacity</w>": 622,
  "hydrocarbons</w>": 623,
  "made</w>": 624,
  "nearest</w>": 625,
  "recharged</w>": 626,
  "selectable</w>": 627,
  "hev</w>": 628,
  "rolling</w>": 629,
  "verified</w>": 630,
  "description</w>": 631,
  "option</w>": 632,
  "57</w>": 633,
  "121</w>": 634,
  "equations</w>": 635,
  "outlet</w>": 636,
  "oxygen</w>": 637,
  "etc</w>": 638,
  "f": 639,
  "background</w>": 640,
  "their</w>": 641,
  "permitted</w>": 642,
  "r": 643,
  "monitor</w>": 644,
  "relevant</w>": 645,
  "200</w>": 646,
  "having</w>": 647,
  "durability</w>": 648,
  "cumulative</w>": 649,
  "s": 650,
  "methods</w>": 651,
  "demand</w>": 652,
  "limits</w>": 653,
  "activated</w>": 654,
  "gasoline</w>": 655,
  "function</w>": 656,
  "6": 657,
  "65</w>": 658,
  "pevs</w>": 659,
  "technical</w>": 660,
  "ated</w>": 661,
  "fid</w>": 662,
  "combustion</w>": 663,
  "thc</w>": 664,
  "adjustment</w>": 665,
  "probe</w>": 666,
  "well</w>": 667,
  "optional</w>": 668,
  "operated</w>": 669,
  "ly</w>": 670,
  "64</w>": 671,
  "71</w>": 672,
  "79</w>": 673,
  "81</w>": 674,
  "moderate</w>": 675,
  "biomethane</w>": 676,
  "iii</w>": 677,
  "iv</w>": 678,
  "unit</w>": 679,
  "mains</w>": 680,
  "signal</w>": 681,
  "speeds</w>": 682,
  "warning</w>": 683,
  "sensors</w>": 684,
  "diagnostic</w>": 685,
  "ation</w>": 686,
  "ate</w>": 687,
  "duration</w>": 688,
  "fulfil</w>": 689,
  "deterioration</w>": 690,
  "ensure</w>": 691,
  "rounding</w>": 692,
  "valid</w>": 693,
  "\uf0b1</w>": 694,
  "periods</w>": 695,
  "*</w>": 696,
  "category</w>": 697,
  "fuelled</w>": 698,
  "included</w>": 699,
  "ted</w>": 700,
  "sealed</w>": 701,
  "break</w>": 702,
  "sea</w>": 703,
  "requirement</w>": 704,
  "statistical</w>": 705,
  "4": 706,
  "compound</w>": 707,
  "i": 708,
  "report</w>": 709,
  "manufacturer's</w>": 710,
  "hybrid</w>": 711,
  "cell</w>": 712,
  "signals</w>": 713,
  "m": 714,
  "l": 715,
  "ating</w>": 716,
  "internal</w>": 717,
  "respect</w>": 718,
  "wheels</w>": 719,
  "further</w>": 720,
  "calculating</w>": 721,
  "pass</w>": 722,
  "parts</w>": 723,
  "every</w>": 724,
  "regression</w>": 725,
  "linear</w>": 726,
  "59</w>": 727,
  "66</w>": 728,
  "76</w>": 729,
  "follow</w>": 730,
  "v": 731,
  "on": 732,
  "af</w>": 733,
  "maintenance</w>": 734,
  "failure</w>": 735,
  "warm</w>": 736,
  "sufficient</w>": 737,
  "families</w>": 738,
  "demonstrate</w>": 739,
  "shortened</w>": 740,
  "67</w>": 741,
  "97</w>": 742,
  "storage</w>": 743,
  "provisions</w>": 744,
  "addition</w>": 745,
  "purposes</w>": 746,
  "dry</w>": 747,
  "beginning</w>": 748,
  "temperatures</w>": 749,
  "al</w>": 750,
  "68</w>": 751,
  "74</w>": 752,
  "loading</w>": 753,
  "new</w>": 754,
  "er</w>": 755,
  "heated</w>": 756,
  "h": 757,
  "di</w>": 758,
  "roller</w>": 759,
  "axle</w>": 760,
  "aer</w>": 761,
  "denominator</w>": 762,
  "occurs</w>": 763,
  "9": 764,
  "subsequent</w>": 765,
  "\u2217</w>": 766,
  "ppmc</w>": 767,
  "w": 768,
  "scale</w>": 769,
  "tailpipe</w>": 770,
  "heat</w>": 771,
  "vi</w>": 772,
  "position</w>": 773,
  "inducement</w>": 774,
  "size</w>": 775,
  "done</w>": 776,
  "front</w>": 777,
  "02</w>": 778,
  "characteristic</w>": 779,
  "compliance</w>": 780,
  "diesel</w>": 781,
  "ally</w>": 782,
  "en": 783,
  "ds</w>": 784,
  "influence</w>": 785,
  "repeated</w>": 786,
  "deviation</w>": 787,
  "switched</w>": 788,
  "electrical</w>": 789,
  "loss</w>": 790,
  "otherwise</w>": 791,
  "example</w>": 792,
  "identical</w>": 793,
  "dj</w>": 794,
  "steps</w>": 795,
  "samples</w>": 796,
  "absolute</w>": 797,
  "gnss</w>": 798,
  "treatment</w>": 799,
  "hydrogen</w>": 800,
  "verifying</w>": 801,
  "decision</w>": 802,
  "g": 803,
  "directly</w>": 804,
  "occur</w>": 805,
  "approved</w>": 806,
  "measures</w>": 807,
  "73</w>": 808,
  "94</w>": 809,
  "correct</w>": 810,
  "72</w>": 811,
  "larger</w>": 812,
  "?</w>": 813,
  "state</w>": 814,
  "voltage</w>": 815,
  "introduction</w>": 816,
  "o": 817,
  "ations</w>": 818,
  "able</w>": 819,
  "relative</w>": 820,
  "density</w>": 821,
  "converter</w>": 822,
  "powertrain</w>": 823,
  "connected</w>": 824,
  "gears</w>": 825,
  "fully</w>": 826,
  "7": 827,
  "once</w>": 828,
  "added</w>": 829,
  "78</w>": 830,
  "shown</w>": 831,
  "weighing</w>": 832,
  "intermediate</w>": 833,
  "tube</w>": 834,
  "alternatively</w>": 835,
  "85</w>": 836,
  "unless</w>": 837,
  "model</w>": 838,
  "nmin</w>": 839,
  "multiple</w>": 840,
  "max</w>": 841,
  "00": 842,
  "reporting</w>": 843,
  "compounds</w>": 844,
  "ting</w>": 845,
  "precision</w>": 846,
  "whether</w>": 847,
  "wheel</w>": 848,
  "chargedepleting</w>": 849,
  "starting</w>": 850,
  "lines</w>": 851,
  "hour</w>": 852,
  "diurnal</w>": 853,
  "allowed</w>": 854,
  "original</w>": 855,
  "humidity</w>": 856,
  "covered</w>": 857,
  "99</w>": 858,
  "placed</w>": 859,
  "installation</w>": 860,
  "recording</w>": 861,
  "fccd</w>": 862,
  "efm</w>": 863,
  "detector</w>": 864,
  "ice</w>": 865,
  "te</w>": 866,
  "stored</w>": 867,
  "273</w>": 868,
  "vapour</w>": 869,
  "monitored</w>": 870,
  "would</w>": 871,
  "reported</w>": 872,
  "cases</w>": 873,
  "cm</w>": 874,
  "minute</w>": 875,
  "times</w>": 876,
  "589</w>": 877,
  "belt</w>": 878,
  "interference</w>": 879,
  "shift</w>": 880,
  "ar": 881,
  "propane</w>": 882,
  "designed</w>": 883,
  "prescribed</w>": 884,
  "secondary</w>": 885,
  "met</w>": 886,
  "capped</w>": 887,
  "cumulated</w>": 888,
  "reesss</w>": 889,
  "post</w>": 890,
  "93</w>": 891,
  "adjusted</w>": 892,
  "bag</w>": 893,
  "ecwltc</w>": 894,
  "perwltc</w>": 895,
  "interpolated</w>": 896,
  "hot</w>": 897,
  "soaking</w>": 898,
  "traceable</w>": 899,
  "averaging</w>": 900,
  "collected</w>": 901,
  "limited</w>": 902,
  "describes</w>": 903,
  "frontal</w>": 904,
  "atmospheric</w>": 905,
  "combination</w>": 906,
  "separate</w>": 907,
  "puff</w>": 908,
  "coolant</w>": 909,
  "levels</w>": 910,
  "evidence</w>": 911,
  "respectively</w>": 912,
  "listed</w>": 913,
  "se</w>": 914,
  "resulting</w>": 915,
  "fail</w>": 916,
  "remedial</w>": 917,
  "ereess</w>": 918,
  "demonstrated</w>": 919,
  "pairs</w>": 920,
  "drift</w>": 921,
  "upstream</w>": 922,
  "profile</w>": 923,
  "down</w>": 924,
  "matter</w>": 925,
  "venturi</w>": 926,
  "de</w>": 927,
  "reduction</w>": 928,
  "external</w>": 929,
  "effect</w>": 930,
  "direction</w>": 931,
  "pev</w>": 932,
  "need</w>": 933,
  "monitors</w>": 934,
  "cold</w>": 935,
  "against</w>": 936,
  "8": 937,
  "pollutant</w>": 938,
  "worst</w>": 939,
  "filters</w>": 940,
  "indicated</w>": 941,
  "modified</w>": 942,
  "aged</w>": 943,
  "applying</w>": 944,
  "77</w>": 945,
  "capable</w>": 946,
  "69</w>": 947,
  "\u2032</w>": 948,
  "flat</w>": 949,
  "calculate</w>": 950,
  "tol</w>": 951,
  "elevation</w>": 952,
  "ates</w>": 953,
  "di": 954,
  "vpr</w>": 955,
  "nitrogen</w>": 956,
  "thresholds</w>": 957,
  "se": 958,
  "charged</w>": 959,
  "predominant</w>": 960,
  "compression</w>": 961,
  "dynamic</w>": 962,
  "except</w>": 963,
  "ki</w>": 964,
  "followed</w>": 965,
  "stop</w>": 966,
  "several</w>": 967,
  "rear</w>": 968,
  "measure</w>": 969,
  "downstream</w>": 970,
  "discrete</w>": 971,
  "dec</w>": 972,
  "software</w>": 973,
  "an": 974,
  "mixture</w>": 975,
  "vehicle's</w>": 976,
  "a": 977,
  "next</w>": 978,
  "content</w>": 979,
  "consideration</w>": 980,
  "row</w>": 981,
  "activation</w>": 982,
  "88</w>": 983,
  "96</w>": 984,
  "approximately</w>": 985,
  "instruments</w>": 986,
  "runs</w>": 987,
  "assessment</w>": 988,
  "101</w>": 989,
  "base</w>": 990,
  "fchv</w>": 991,
  "due</w>": 992,
  "basis</w>": 993,
  "design</w>": 994,
  "propulsion</w>": 995,
  "travelled</w>": 996,
  "life</w>": 997,
  "purge</w>": 998,
  "completed</w>": 999,
  "subsequently</w>": 1000,
  "hm</w>": 1001,
  "fc</w>": 1002,
  "mj</w>": 1003,
  "chargesustaining</w>": 1004,
  "con": 1005,
  "st</w>": 1006,
  "changes</w>": 1007,
  "ti": 1008,
  "ais</w>": 1009,
  "si": 1010,
  "while</w>": 1011,
  "sum</w>": 1012,
  "amount</w>": 1013,
  "repair</w>": 1014,
  "they</w>": 1015,
  "location</w>": 1016,
  "configuration</w>": 1017,
  "traction</w>": 1018,
  "de": 1019,
  "depressurisation</w>": 1020,
  "similar</w>": 1021,
  "damage</w>": 1022,
  "barometric</w>": 1023,
  "default</w>": 1024,
  "iso</w>": 1025,
  "four</w>": 1026,
  "squares</w>": 1027,
  "slope</w>": 1028,
  "removal</w>": 1029,
  "length</w>": 1030,
  "body</w>": 1031,
  "cooling</w>": 1032,
  "fan</w>": 1033,
  "eac</w>": 1034,
  "periodically</w>": 1035,
  "regenerating</w>": 1036,
  "gain</w>": 1037,
  "agreement</w>": 1038,
  "were</w>": 1039,
  "vi": 1040,
  "combined</w>": 1041,
  "consists</w>": 1042,
  "st": 1043,
  "meters</w>": 1044,
  "clutch</w>": 1045,
  "k": 1046,
  "\u201c</w>": 1047,
  "300</w>": 1048,
  "misfire</w>": 1049,
  "take</w>": 1050,
  "ent</w>": 1051,
  "status</w>": 1052,
  "settings</w>": 1053,
  "ex": 1054,
  "tolerances</w>": 1055,
  "checks</w>": 1056,
  "vcap</w>": 1057,
  "downshift</w>": 1058,
  "weight</w>": 1059,
  "|</w>": 1060,
  "column</w>": 1061,
  "axis</w>": 1062,
  "variable</w>": 1063,
  "confirmation</w>": 1064,
  "bin</w>": 1065,
  "lap</w>": 1066,
  "checking</w>": 1067,
  "ur": 1068,
  "date</w>": 1069,
  "20": 1070,
  "li": 1071,
  "as": 1072,
  "or": 1073,
  "losses</w>": 1074,
  "\u201d</w>": 1075,
  "term</w>": 1076,
  "open</w>": 1077,
  "ding</w>": 1078,
  "places</w>": 1079,
  "co": 1080,
  "months</w>": 1081,
  "resolution</w>": 1082,
  "sets</w>": 1083,
  "1022</w>": 1084,
  "pwot</w>": 1085,
  "expressed</w>": 1086,
  "units</w>": 1087,
  "file</w>": 1088,
  "132</w>": 1089,
  "dis": 1090,
  "critical</w>": 1091,
  "89</w>": 1092,
  "forces</w>": 1093,
  "ers</w>": 1094,
  "axles</w>": 1095,
  "idling</w>": 1096,
  "starts</w>": 1097,
  "ratios</w>": 1098,
  "action</w>": 1099,
  "computer</w>": 1100,
  "cause</w>": 1101,
  "threshold</w>": 1102,
  "plan</w>": 1103,
  "comply</w>": 1104,
  "manufacturers</w>": 1105,
  "kco</w>": 1106,
  "mm</w>": 1107,
  "track</w>": 1108,
  "quality</w>": 1109,
  "mileage</w>": 1110,
  "400</w>": 1111,
  "lowest</w>": 1112,
  "instead</w>": 1113,
  "delta</w>": 1114,
  "fixed</w>": 1115,
  "conditioning</w>": 1116,
  "room</w>": 1117,
  "ecp</w>": 1118,
  "cruise</w>": 1119,
  "apos</w>": 1120,
  "exceeding</w>": 1121,
  "free</w>": 1122,
  "working</w>": 1123,
  "however</w>": 1124,
  "ac": 1125,
  "pm</w>": 1126,
  "refers</w>": 1127,
  "definition</w>": 1128,
  "bi</w>": 1129,
  "material</w>": 1130,
  "events</w>": 1131,
  "long</w>": 1132,
  "increase</w>": 1133,
  "since</w>": 1134,
  "enable</w>": 1135,
  "th</w>": 1136,
  "01</w>": 1137,
  "continuously</w>": 1138,
  "consist</w>": 1139,
  "achieve</w>": 1140,
  "interim</w>": 1141,
  "nadd</w>": 1142,
  "closed</w>": 1143,
  "laboratory</w>": 1144,
  "ufm</w>": 1145,
  "passed</w>": 1146,
  "ws</w>": 1147,
  "documentation</w>": 1148,
  "manual</w>": 1149,
  "sbc</w>": 1150,
  "ec": 1151,
  "exchange</w>": 1152,
  "failed</w>": 1153,
  "detailed</w>": 1154,
  "gram</w>": 1155,
  "sp": 1156,
  "document</w>": 1157,
  "identification</w>": 1158,
  "do</w>": 1159,
  "mixing</w>": 1160,
  "continuous</w>": 1161,
  "plus</w>": 1162,
  "u": 1163,
  "series</w>": 1164,
  "maintained</w>": 1165,
  "another</w>": 1166,
  "su": 1167,
  "cap</w>": 1168,
  "y": 1169,
  "contain</w>": 1170,
  "active</w>": 1171,
  "throughout</w>": 1172,
  "integrated</w>": 1173,
  "ter</w>": 1174,
  "modifications</w>": 1175,
  "downscaling</w>": 1176,
  "sequences</w>": 1177,
  "conform</w>": 1178,
  "ngvmax</w>": 1179,
  "vj</w>": 1180,
  "ids</w>": 1181,
  "particular</w>": 1182,
  "oil</w>": 1183,
  "readings</w>": 1184,
  "conversion</w>": 1185,
  "molar</w>": 1186,
  "interval</w>": 1187,
  "00</w>": 1188,
  "special</w>": 1189,
  "diagnostics</w>": 1190,
  "real</w>": 1191,
  "sub</w>": 1192,
  "idle</w>": 1193,
  "ethanol</w>": 1194,
  "ssv</w>": 1195,
  "major</w>": 1196,
  "affect</w>": 1197,
  "rated</w>": 1198,
  "located</w>": 1199,
  "per": 1200,
  "divided</w>": 1201,
  "inertia</w>": 1202,
  "compared</w>": 1203,
  "rcdc</w>": 1204,
  "auxiliary</w>": 1205,
  "325</w>": 1206,
  "grams</w>": 1207,
  "identified</w>": 1208,
  "account</w>": 1209,
  "changed</w>": 1210,
  "entire</w>": 1211,
  "useful</w>": 1212,
  "avoid</w>": 1213,
  "te": 1214,
  "ends</w>": 1215,
  "&</w>": 1216,
  "injection</w>": 1217,
  "derived</w>": 1218,
  "yearly</w>": 1219,
  "indices</w>": 1220,
  "ec</w>": 1221,
  "05</w>": 1222,
  "third</w>": 1223,
  "averaged</w>": 1224,
  "determining</w>": 1225,
  "instructions</w>": 1226,
  "intervals</w>": 1227,
  "started</w>": 1228,
  "tstart</w>": 1229,
  "chosen</w>": 1230,
  "separately</w>": 1231,
  "preparation</w>": 1232,
  "negative</w>": 1233,
  "completion</w>": 1234,
  "error</w>": 1235,
  "exchanger</w>": 1236,
  "ti</w>": 1237,
  "mobility</w>": 1238,
  "intake</w>": 1239,
  "smoothing</w>": 1240,
  "mo": 1241,
  "light</w>": 1242,
  "regard</w>": 1243,
  "sed</w>": 1244,
  "ic</w>": 1245,
  "ch": 1246,
  "applies</w>": 1247,
  "form</w>": 1248,
  "liquid</w>": 1249,
  "pf</w>": 1250,
  "monoxide</w>": 1251,
  "manner</w>": 1252,
  "delay</w>": 1253,
  "rise</w>": 1254,
  "simulated</w>": 1255,
  "flex</w>": 1256,
  "configurable</w>": 1257,
  "allow</w>": 1258,
  "electronic</w>": 1259,
  "contained</w>": 1260,
  "heating</w>": 1261,
  "deemed</w>": 1262,
  "ms</w>": 1263,
  "increased</w>": 1264,
  "kept</w>": 1265,
  "acceptable</w>": 1266,
  "outside</w>": 1267,
  "principle</w>": 1268,
  "stated</w>": 1269,
  "multiplied</w>": 1270,
  "excluded</w>": 1271,
  "150</w>": 1272,
  "deactivated</w>": 1273,
  "validated</w>": 1274,
  "downshifts</w>": 1275,
  "effective</w>": 1276,
  "simulation</w>": 1277,
  "lm</w>": 1278,
  "alignment</w>": 1279,
  "product</w>": 1280,
  "correlation</w>": 1281,
  "ranges</w>": 1282,
  "bags</w>": 1283,
  "invalid</w>": 1284,
  "depletion</w>": 1285,
  "drain</w>": 1286,
  "certificate</w>": 1287,
  "crankcase</w>": 1288,
  "er": 1289,
  "iuprm</w>": 1290,
  "tion</w>": 1291,
  "83</w>": 1292,
  "pollution</w>": 1293,
  "98</w>": 1294,
  "counter</w>": 1295,
  "ho": 1296,
  "'s</w>": 1297,
  "double</w>": 1298,
  "controlled</w>": 1299,
  "mechanical</w>": 1300,
  "eaer</w>": 1301,
  "kw</w>": 1302,
  "event</w>": 1303,
  "valve</w>": 1304,
  "detected</w>": 1305,
  "short</w>": 1306,
  "standards</w>": 1307,
  "tool</w>": 1308,
  "good</w>": 1309,
  "remain</w>": 1310,
  "belong</w>": 1311,
  "split</w>": 1312,
  "effects</w>": 1313,
  "section</w>": 1314,
  "\u221a</w>": 1315,
  "438</w>": 1316,
  "fit</w>": 1317,
  "ine</w>": 1318,
  "empty</w>": 1319,
  "ro": 1320,
  "82</w>": 1321,
  "restraint</w>": 1322,
  "sampled</w>": 1323,
  "year</w>": 1324,
  "equivalency</w>": 1325,
  "connecting</w>": 1326,
  "stepwise</w>": 1327,
  "kilometer</w>": 1328,
  "eaerp</w>": 1329,
  "incremented</w>": 1330,
  "shares</w>": 1331,
  "123</w>": 1332,
  "definitions</w>": 1333,
  "strategy</w>": 1334,
  "package</w>": 1335,
  "includes</w>": 1336,
  "pro": 1337,
  "map</w>": 1338,
  "le": 1339,
  "ul": 1340,
  "could</w>": 1341,
  "pre": 1342,
  "anemometer</w>": 1343,
  "anemometry</w>": 1344,
  "height</w>": 1345,
  "needed</w>": 1346,
  "ver": 1347,
  "emitted</w>": 1348,
  "requires</w>": 1349,
  "overflow</w>": 1350,
  "breakthrough</w>": 1351,
  "codes</w>": 1352,
  "indicator</w>": 1353,
  "stream</w>": 1354,
  "differences</w>": 1355,
  "inter": 1356,
  "years</w>": 1357,
  "supply</w>": 1358,
  "demonstration</w>": 1359,
  "omitted</w>": 1360,
  "perform</w>": 1361,
  "86</w>": 1362,
  "consisting</w>": 1363,
  "record</w>": 1364,
  "days</w>": 1365,
  "gener": 1366,
  "tend</w>": 1367,
  "accelerator</w>": 1368,
  "cross</w>": 1369,
  "analysed</w>": 1370,
  "smoothed</w>": 1371,
  "proportional</w>": 1372,
  "day</w>": 1373,
  "steady</w>": 1374,
  "ufphase</w>": 1375,
  "fcweighted</w>": 1376,
  "perlow</w>": 1377,
  "permed</w>": 1378,
  "perhigh</w>": 1379,
  "quench</w>": 1380,
  "hcorr</w>": 1381,
  "name</w>": 1382,
  "500</w>": 1383,
  "list</w>": 1384,
  "validity</w>": 1385,
  "un</w>": 1386,
  "previous</w>": 1387,
  "categories</w>": 1388,
  "ultrasonic</w>": 1389,
  "me": 1390,
  "surface</w>": 1391,
  "tools</w>": 1392,
  "intended</w>": 1393,
  "most</w>": 1394,
  "mi": 1395,
  "achieved</w>": 1396,
  "net</w>": 1397,
  "ying</w>": 1398,
  "solid</w>": 1399,
  "mounted</w>": 1400,
  "ad": 1401,
  "fi": 1402,
  "over": 1403,
  "present</w>": 1404,
  "adjustments</w>": 1405,
  "imp": 1406,
  "battery</w>": 1407,
  "drawn</w>": 1408,
  "declaration</w>": 1409,
  "ar</w>": 1410,
  "deviate</w>": 1411,
  "comp": 1412,
  "ance</w>": 1413,
  "x": 1414,
  "125</w>": 1415,
  "engineering</w>": 1416,
  "five</w>": 1417,
  "med</w>": 1418,
  "800</w>": 1419,
  "remaining</w>": 1420,
  "par": 1421,
  "10": 1422,
  "nidle</w>": 1423,
  "counting</w>": 1424,
  "removed</w>": 1425,
  "rr": 1426,
  "known</w>": 1427,
  "again</w>": 1428,
  "probes</w>": 1429,
  "condensation</w>": 1430,
  "converted</w>": 1431,
  "count</w>": 1432,
  "purged</w>": 1433,
  "iwr</w>": 1434,
  "refill</w>": 1435,
  "cld</w>": 1436,
  "topographic</w>": 1437,
  "wet</w>": 1438,
  "datasets</w>": 1439,
  "permeability</w>": 1440,
  "butane</w>": 1441,
  "flame</w>": 1442,
  "trans": 1443,
  "displacement</w>": 1444,
  "volatile</w>": 1445,
  "ethane</w>": 1446,
  "trap</w>": 1447,
  "national</w>": 1448,
  "minus</w>": 1449,
  "containing</w>": 1450,
  "features</w>": 1451,
  "accurate</w>": 1452,
  "contact</w>": 1453,
  "automatic</w>": 1454,
  "neutral</w>": 1455,
  "machine</w>": 1456,
  "supp": 1457,
  "therefore</w>": 1458,
  "laid</w>": 1459,
  "ves</w>": 1460,
  "access</w>": 1461,
  "deficiency</w>": 1462,
  "ters</w>": 1463,
  "ad</w>": 1464,
  "incrementing</w>": 1465,
  "numerator</w>": 1466,
  "responsible</w>": 1467,
  "fulfilling</w>": 1468,
  "across</w>": 1469,
  "le</w>": 1470,
  "pollutants</w>": 1471,
  "classes</w>": 1472,
  "preferably</w>": 1473,
  "advance</w>": 1474,
  "hardware</w>": 1475,
  "ve</w>": 1476,
  "mentioned</w>": 1477,
  "holder</w>": 1478,
  "significant</w>": 1479,
  "switching</w>": 1480,
  "re</w>": 1481,
  "how</w>": 1482,
  "91</w>": 1483,
  "corrections</w>": 1484,
  "centre</w>": 1485,
  "might</w>": 1486,
  "composition</w>": 1487,
  "tonne</w>": 1488,
  "stable</w>": 1489,
  "segment</w>": 1490,
  "tm</w>": 1491,
  "suction</w>": 1492,
  "raw</w>": 1493,
  "pipe</w>": 1494,
  "pi</w>": 1495,
  "u</w>": 1496,
  "balanced</w>": 1497,
  "contains</w>": 1498,
  "purified</w>": 1499,
  "synthetic</w>": 1500,
  "processing</w>": 1501,
  "leak</w>": 1502,
  "003</w>": 1503,
  "eclow</w>": 1504,
  "ecmed</w>": 1505,
  "echigh</w>": 1506,
  "transformation</w>": 1507,
  "share</w>": 1508,
  "hint</w>": 1509,
  "ents</w>": 1510,
  "modification</w>": 1511,
  "smoke</w>": 1512,
  "moving</w>": 1513,
  "gtr</w>": 1514,
  "for": 1515,
  "primary</w>": 1516,
  "group</w>": 1517,
  "form": 1518,
  "11": 1519,
  "j": 1520,
  "dioxide</w>": 1521,
  "cfv</w>": 1522,
  "detection</w>": 1523,
  "qu": 1524,
  "ob": 1525,
  "symbols</w>": 1526,
  "ph": 1527,
  "negligible</w>": 1528,
  "el</w>": 1529,
  "materials</w>": 1530,
  "proper</w>": 1531,
  "forward</w>": 1532,
  "motion</w>": 1533,
  "technically</w>": 1534,
  "side</w>": 1535,
  "ab": 1536,
  "ling</w>": 1537,
  "mono</w>": 1538,
  "fies</w>": 1539,
  "catalytic</w>": 1540,
  "filler</w>": 1541,
  "quantity</w>": 1542,
  "po": 1543,
  "terms</w>": 1544,
  "percentage</w>": 1545,
  "provides</w>": 1546,
  "require</w>": 1547,
  "via</w>": 1548,
  "connection</w>": 1549,
  "ary</w>": 1550,
  "indicating</w>": 1551,
  "confirmed</w>": 1552,
  "sub": 1553,
  "meets</w>": 1554,
  "strategies</w>": 1555,
  "df</w>": 1556,
  "sh": 1557,
  "stabilized</w>": 1558,
  "verify</w>": 1559,
  "specification</w>": 1560,
  "even</w>": 1561,
  "judgement</w>": 1562,
  "drop</w>": 1563,
  "safety</w>": 1564,
  "close</w>": 1565,
  "restarts</w>": 1566,
  "tri": 1567,
  "indicate</w>": 1568,
  "risk</w>": 1569,
  "along</w>": 1570,
  "84</w>": 1571,
  "cover</w>": 1572,
  "segments</w>": 1573,
  "smaller</w>": 1574,
  "flowing</w>": 1575,
  "consumed</w>": 1576,
  "sae</w>": 1577,
  "usable</w>": 1578,
  "grade</w>": 1579,
  "119</w>": 1580,
  "rules</w>": 1581,
  "age</w>": 1582,
  "sdbc</w>": 1583,
  "accumulation</w>": 1584,
  "excess</w>": 1585,
  "already</w>": 1586,
  "19": 1587,
  "ised</w>": 1588,
  "standardised</w>": 1589,
  "ai</w>": 1590,
  "ic": 1591,
  "to": 1592,
  "like</w>": 1593,
  "bes</w>": 1594,
  "137</w>": 1595,
  "assigned</w>": 1596,
  "direct</w>": 1597,
  "hepa</w>": 1598,
  "lo": 1599,
  "ndir</w>": 1600,
  "q": 1601,
  "rcda</w>": 1602,
  "replacement</w>": 1603,
  "degree</w>": 1604,
  "sing</w>": 1605,
  "blockage</w>": 1606,
  "experienced</w>": 1607,
  "produced</w>": 1608,
  "construction</w>": 1609,
  "rotational</w>": 1610,
  "rotating</w>": 1611,
  "functionality</w>": 1612,
  "automatically</w>": 1613,
  "depending</w>": 1614,
  "converters</w>": 1615,
  "elements</w>": 1616,
  "properly</w>": 1617,
  "relief</w>": 1618,
  "cylinder</w>": 1619,
  "indication</w>": 1620,
  "availability</w>": 1621,
  "serial</w>": 1622,
  "ant</w>": 1623,
  "version</w>": 1624,
  "circuit</w>": 1625,
  "integrity</w>": 1626,
  "submitted</w>": 1627,
  "denominators</w>": 1628,
  "prevent</w>": 1629,
  "affected</w>": 1630,
  "led</w>": 1631,
  "market</w>": 1632,
  "activate</w>": 1633,
  "ra": 1634,
  "exceeds</w>": 1635,
  "ded</w>": 1636,
  "el": 1637,
  "dated</w>": 1638,
  "choose</w>": 1639,
  "dosing</w>": 1640,
  "odometer</w>": 1641,
  "cal": 1642,
  "satisfy</w>": 1643,
  "subjected</w>": 1644,
  "ce": 1645,
  "\u2219</w>": 1646,
  "92</w>": 1647,
  "tions</w>": 1648,
  "choice</w>": 1649,
  "subject</w>": 1650,
  "prevented</w>": 1651,
  "timing</w>": 1652,
  "evaluated</w>": 1653,
  "mr</w>": 1654,
  "nozzle</w>": 1655,
  "metres</w>": 1656,
  "pair</w>": 1657,
  "pressures</w>": 1658,
  "deviations</w>": 1659,
  "stabilization</w>": 1660,
  "radius</w>": 1661,
  "ter": 1662,
  "feasible</w>": 1663,
  "loaded</w>": 1664,
  "thermal</w>": 1665,
  "analytical</w>": 1666,
  "region</w>": 1667,
  "turned</w>": 1668,
  "give</w>": 1669,
  "aerosol</w>": 1670,
  "preconditioned</w>": 1671,
  "abnormally</w>": 1672,
  "best</w>": 1673,
  "rmsse</w>": 1674,
  "gco</w>": 1675,
  "bypassing</w>": 1676,
  "weighting</w>": 1677,
  "chc</w>": 1678,
  "0009": 1679,
  "0005</w>": 1680,
  "mk</w>": 1681,
  "tive</w>": 1682,
  "rechargeable</w>": 1683,
  "functional</w>": 1684,
  "absence</w>": 1685,
  "establish</w>": 1686,
  "pe": 1687,
  "up": 1688,
  "considering</w>": 1689,
  "meeting</w>": 1690,
  "later</w>": 1691,
  "recommendations</w>": 1692,
  "th": 1693,
  "tr": 1694,
  "differ</w>": 1695,
  "ground</w>": 1696,
  "regarding</w>": 1697,
  "drivetrain</w>": 1698,
  "polynomial</w>": 1699,
  "charger</w>": 1700,
  "permanent</w>": 1701,
  "litres</w>": 1702,
  "providing</w>": 1703,
  "shut</w>": 1704,
  "likely</w>": 1705,
  "no": 1706,
  "ri": 1707,
  "reaches</w>": 1708,
  "fac": 1709,
  "options</w>": 1710,
  "pending</w>": 1711,
  "becomes</w>": 1712,
  "justification</w>": 1713,
  "defective</w>": 1714,
  "safe</w>": 1715,
  "enclosures</w>": 1716,
  "ming</w>": 1717,
  "taking</w>": 1718,
  "en</w>": 1719,
  "z</w>": 1720,
  "concerned</w>": 1721,
  "numbers</w>": 1722,
  "exceeded</w>": 1723,
  "at": 1724,
  "he": 1725,
  "pl": 1726,
  "129</w>": 1727,
  "log": 1728,
  "tanks</w>": 1729,
  "ig": 1730,
  "fill</w>": 1731,
  "allows</w>": 1732,
  "tation</w>": 1733,
  "ability</w>": 1734,
  "ati": 1735,
  "03</w>": 1736,
  "ls</w>": 1737,
  "sm</w>": 1738,
  "square</w>": 1739,
  "estimated</w>": 1740,
  "yaw</w>": 1741,
  "upper</w>": 1742,
  "width</w>": 1743,
  "movable</w>": 1744,
  "war": 1745,
  "warmed</w>": 1746,
  "kelvin</w>": 1747,
  "maintain</w>": 1748,
  "vertical</w>": 1749,
  "fans</w>": 1750,
  "static</w>": 1751,
  "volumetric</w>": 1752,
  "flows</w>": 1753,
  "suitable</w>": 1754,
  "longer</w>": 1755,
  "spn</w>": 1756,
  "efficiencies</w>": 1757,
  "accepted</w>": 1758,
  "dco</w>": 1759,
  "fccs</w>": 1760,
  "zeroed</w>": 1761,
  "prepared</w>": 1762,
  "kfuel</w>": 1763,
  "ubeccp</w>": 1764,
  "chart</w>": 1765,
  "cco</w>": 1766,
  "spanned</w>": 1767,
  "520</w>": 1768,
  "screening</w>": 1769,
  "122</w>": 1770,
  "motor</w>": 1771,
  "performing</w>": 1772,
  "various</w>": 1773,
  "key</w>": 1774,
  "laden</w>": 1775,
  "bwc</w>": 1776,
  "cal</w>": 1777,
  "et</w>": 1778,
  "classifier</w>": 1779,
  "subsonic</w>": 1780,
  "us": 1781,
  "reach</w>": 1782,
  "presence</w>": 1783,
  "str": 1784,
  "filled</w>": 1785,
  "defeat</w>": 1786,
  "rpm</w>": 1787,
  "manifold</w>": 1788,
  "context</w>": 1789,
  "malfunctions</w>": 1790,
  "introduced</w>": 1791,
  "ator</w>": 1792,
  "lead</w>": 1793,
  "face</w>": 1794,
  "scan</w>": 1795,
  "make</w>": 1796,
  "ity</w>": 1797,
  "ses</w>": 1798,
  "examples</w>": 1799,
  "protection</w>": 1800,
  "ps</w>": 1801,
  "sales</w>": 1802,
  "adequate</w>": 1803,
  "justified</w>": 1804,
  "be": 1805,
  "under": 1806,
  "recharge</w>": 1807,
  "ence</w>": 1808,
  "valves</w>": 1809,
  "common</w>": 1810,
  "some</w>": 1811,
  "functioning</w>": 1812,
  "masses</w>": 1813,
  "poly": 1814,
  "must</w>": 1815,
  "tf</w>": 1816,
  "lot</w>": 1817,
  "details</w>": 1818,
  "attached</w>": 1819,
  "initiated</w>": 1820,
  "occurred</w>": 1821,
  "operate</w>": 1822,
  "coun": 1823,
  "rel": 1824,
  "nmax</w>": 1825,
  "extreme</w>": 1826,
  "angle</w>": 1827,
  "opposite</w>": 1828,
  "directions</w>": 1829,
  "parallel</w>": 1830,
  "none</w>": 1831,
  "weighed</w>": 1832,
  "soaked</w>": 1833,
  "collection</w>": 1834,
  "ssi": 1835,
  "rejected</w>": 1836,
  "stabilised</w>": 1837,
  "international</w>": 1838,
  "vlow</w>": 1839,
  "ring</w>": 1840,
  "satisfied</w>": 1841,
  "dilute</w>": 1842,
  "lfe</w>": 1843,
  "leaks</w>": 1844,
  "normally</w>": 1845,
  "penetration</w>": 1846,
  "purity</w>": 1847,
  "city</w>": 1848,
  "perp</w>": 1849,
  "bed</w>": 1850,
  "decide</w>": 1851,
  "bat</w>": 1852,
  "rpa</w>": 1853,
  "faulty</w>": 1854,
  "conduct</w>": 1855,
  "kilometre</w>": 1856,
  "overall</w>": 1857,
  "um</w>": 1858,
  "regul": 1859,
  "com": 1860,
  "reduce</w>": 1861,
  "variation</w>": 1862,
  "lab": 1863,
  "dec": 1864,
  "india</w>": 1865,
  "outcome</w>": 1866,
  "af": 1867,
  "amended</w>": 1868,
  "id</w>": 1869,
  "compu": 1870,
  "fluid</w>": 1871,
  "sampler</w>": 1872,
  "ionization</w>": 1873,
  "hfid</w>": 1874,
  "tro": 1875,
  "nduv</w>": 1876,
  "cutter</w>": 1877,
  "pcf</w>": 1878,
  "pdp</w>": 1879,
  "pts</w>": 1880,
  "combinations</w>": 1881,
  "show</w>": 1882,
  "always</w>": 1883,
  "gives</w>": 1884,
  "out": 1885,
  "produce</w>": 1886,
  "stationary</w>": 1887,
  "ving</w>": 1888,
  "simul": 1889,
  "wltcs</w>": 1890,
  "whose</w>": 1891,
  "characteri": 1892,
  "metal</w>": 1893,
  "constructed</w>": 1894,
  "ered</w>": 1895,
  "refuelling</w>": 1896,
  "spark</w>": 1897,
  "back</w>": 1898,
  "compensate</w>": 1899,
  "airflow</w>": 1900,
  "validate</w>": 1901,
  "annexes</w>": 1902,
  "complies</w>": 1903,
  "connections</w>": 1904,
  "ct</w>": 1905,
  "retained</w>": 1906,
  "because</w>": 1907,
  "ev": 1908,
  "regarded</w>": 1909,
  "atmosphere</w>": 1910,
  "charcoal</w>": 1911,
  "configurations</w>": 1912,
  "fuelling</w>": 1913,
  "appendices</w>": 1914,
  "half</w>": 1915,
  "nd</w>": 1916,
  "ovchevs</w>": 1917,
  "impact</w>": 1918,
  "simultaneously</w>": 1919,
  "pattern</w>": 1920,
  "reason</w>": 1921,
  "cri</w>": 1922,
  "ty</w>": 1923,
  "fl": 1924,
  "too</w>": 1925,
  "interrupted</w>": 1926,
  "port</w>": 1927,
  "ked</w>": 1928,
  "mandatory</w>": 1929,
  "switch</w>": 1930,
  "engaged</w>": 1931,
  "equally</w>": 1932,
  "standstill</w>": 1933,
  "asi": 1934,
  "requested</w>": 1935,
  "together</w>": 1936,
  "red</w>": 1937,
  "estimate</w>": 1938,
  "ane</w>": 1939,
  "onal</w>": 1940,
  "coastdowns</w>": 1941,
  "longitudinal</w>": 1942,
  "fulfils</w>": 1943,
  "compartment</w>": 1944,
  "aligned</w>": 1945,
  "instrumentation</w>": 1946,
  "elapsed</w>": 1947,
  "ith</w>": 1948,
  "absorption</w>": 1949,
  "na</w>": 1950,
  "transducer</w>": 1951,
  "practice</w>": 1952,
  "revolutions</w>": 1953,
  "dp</w>": 1954,
  "intercept</w>": 1955,
  "nor</w>": 1956,
  "ensured</w>": 1957,
  "returned</w>": 1958,
  "support</w>": 1959,
  "mol</w>": 1960,
  "\u2018</w>": 1961,
  "nomenclature</w>": 1962,
  "vh</w>": 1963,
  "429</w>": 1964,
  "corresponds</w>": 1965,
  "ci</w>": 1966,
  "28": 1967,
  "streams</w>": 1968,
  "adaption</w>": 1969,
  "hcld</w>": 1970,
  "remove</w>": 1971,
  "consistency</w>": 1972,
  "dryer</w>": 1973,
  "nt</w>": 1974,
  "scope</w>": 1975,
  "abbreviations</w>": 1976,
  "extension</w>": 1977,
  "vely</w>": 1978,
  "il": 1979,
  "transmissions</w>": 1980,
  "calibrations</w>": 1981,
  "portable</w>": 1982,
  "dynamics</w>": 1983,
  "format</w>": 1984,
  "ty": 1985,
  "reflect</w>": 1986,
  "ne": 1987,
  "ization</w>": 1988,
  "gr": 1989,
  "presented</w>": 1990,
  "clo": 1991,
  "sion</w>": 1992,
  "dr": 1993,
  "cl": 1994,
  "infrared</w>": 1995,
  "transfer</w>": 1996,
  "ptt</w>": 1997,
  "shed</w>": 1998,
  "cooled</w>": 1999,
  "piston</w>": 2000,
  "correctness</w>": 2001,
  "the": 2002,
  "shi": 2003,
  "ag": 2004,
  "bo": 2005,
  "man": 2006,
  "mc</w>": 2007,
  "les</w>": 2008,
  "satis": 2009,
  "mixtures</w>": 2010,
  "element</w>": 2011,
  "vacuum</w>": 2012,
  "tional</w>": 2013,
  "inside</w>": 2014,
  "equals</w>": 2015,
  "mination</w>": 2016,
  "controller</w>": 2017,
  "trim</w>": 2018,
  "peak</w>": 2019,
  "restricted</w>": 2020,
  "dependent</w>": 2021,
  "tu": 2022,
  "trouble</w>": 2023,
  "ized</w>": 2024,
  "relating</w>": 2025,
  "numerators</w>": 2026,
  "facility</w>": 2027,
  "granted</w>": 2028,
  "ators</w>": 2029,
  "sec": 2030,
  "just</w>": 2031,
  "lubric": 2032,
  "speci": 2033,
  "ten</w>": 2034,
  "proof</w>": 2035,
  "accessible</w>": 2036,
  "influencing</w>": 2037,
  "plug</w>": 2038,
  "ged</w>": 2039,
  "agreed</w>": 2040,
  "egr</w>": 2041,
  "stroke</w>": 2042,
  "display</w>": 2043,
  "bel": 2044,
  "established</w>": 2045,
  "random</w>": 2046,
  "selecting</w>": 2047,
  "sources</w>": 2048,
  "eli": 2049,
  "recommendation</w>": 2050,
  "sti": 2051,
  "190</w>": 2052,
  "passes</w>": 2053,
  "brake</w>": 2054,
  "errors</w>": 2055,
  "flow": 2056,
  "stand</w>": 2057,
  "failures</w>": 2058,
  "about</w>": 2059,
  "aftertreatment</w>": 2060,
  "z": 2061,
  "here</w>": 2062,
  "documented</w>": 2063,
  "curves</w>": 2064,
  "downscaled</w>": 2065,
  "thigh</w>": 2066,
  "dividing</w>": 2067,
  "spaced</w>": 2068,
  "130</w>": 2069,
  "ons</w>": 2070,
  "disengaged</w>": 2071,
  "tables</w>": 2072,
  "root</w>": 2073,
  "clean</w>": 2074,
  "items</w>": 2075,
  "wor": 2076,
  "hr</w>": 2077,
  "repe": 2078,
  "conditioned</w>": 2079,
  "minimise</w>": 2080,
  "015</w>": 2081,
  "eld</w>": 2082,
  "positions</w>": 2083,
  "minimize</w>": 2084,
  "outliers</w>": 2085,
  "1000</w>": 2086,
  "facilities</w>": 2087,
  "dynamometers</w>": 2088,
  "vhigh</w>": 2089,
  "around</w>": 2090,
  "smooth</w>": 2091,
  "stopped</w>": 2092,
  "rates</w>": 2093,
  "optionally</w>": 2094,
  "figures</w>": 2095,
  "throat</w>": 2096,
  "differential</w>": 2097,
  "introducing</w>": 2098,
  "weights</w>": 2099,
  "tes</w>": 2100,
  "divider</w>": 2101,
  "fcp</w>": 2102,
  "typical</w>": 2103,
  "certification</w>": 2104,
  "ss": 2105,
  "opened</w>": 2106,
  "cables</w>": 2107,
  "ved</w>": 2108,
  "600</w>": 2109,
  "kilogram</w>": 2110,
  "centi": 2111,
  "continue</w>": 2112,
  "pncd</w>": 2113,
  "pmcd</w>": 2114,
  "klow</w>": 2115,
  "kmed</w>": 2116,
  "accommo": 2117,
  "@</w>": 2118,
  "tr</w>": 2119,
  "histogram</w>": 2120,
  "frame</w>": 2121,
  "repairs</w>": 2122,
  "characterized</w>": 2123,
  "voided</w>": 2124,
  "far</w>": 2125,
  "hgnss</w>": 2126,
  "pmr": 2127,
  "lots</w>": 2128,
  "investig": 2129,
  "photos</w>": 2130,
  "duty</w>": 2131,
  "uf</w>": 2132,
  "src</w>": 2133,
  "updated</w>": 2134,
  "developed</w>": 2135,
  "wide</w>": 2136,
  "main</w>": 2137,
  "representing</w>": 2138,
  "groups</w>": 2139,
  "175</w>": 2140,
  "existing</w>": 2141,
  "tor</w>": 2142,
  "ture</w>": 2143,
  "dispersive</w>": 2144,
  "remo": 2145,
  "oxidation</w>": 2146,
  "scr</w>": 2147,
  "separ": 2148,
  "linearization</w>": 2149,
  "ma": 2150,
  "adjust</w>": 2151,
  "acceptance</w>": 2152,
  "ap": 2153,
  "ained</w>": 2154,
  "independently</w>": 2155,
  "work</w>": 2156,
  "independent</w>": 2157,
  "me</w>": 2158,
  "peripheral</w>": 2159,
  "so": 2160,
  "lying</w>": 2161,
  "reasonably</w>": 2162,
  "encountered</w>": 2163,
  "previously</w>": 2164,
  "venting</w>": 2165,
  "operator</w>": 2166,
  "complied</w>": 2167,
  "clearly</w>": 2168,
  "catalysts</w>": 2169,
  "caused</w>": 2170,
  "provision</w>": 2171,
  "diagnosis</w>": 2172,
  "unique</w>": 2173,
  "tampering</w>": 2174,
  "approvals</w>": 2175,
  "determines</w>": 2176,
  "extensions</w>": 2177,
  "approve</w>": 2178,
  "adap": 2179,
  "agree</w>": 2180,
  "utili": 2181,
  "15031</w>": 2182,
  "sol": 2183,
  "right</w>": 2184,
  "nodal</w>": 2185,
  "preliminary</w>": 2186,
  "dual</w>": 2187,
  "cng</w>": 2188,
  "ve": 2189,
  "obtain</w>": 2190,
  "ings</w>": 2191,
  "still</w>": 2192,
  "exception</w>": 2193,
  "canisters</w>": 2194,
  "ative</w>": 2195,
  "found</w>": 2196,
  "activity</w>": 2197,
  "struc": 2198,
  "ages</w>": 2199,
  "additive</w>": 2200,
  "ru": 2201,
  "satisfactory</w>": 2202,
  "issued</w>": 2203,
  "refer</w>": 2204,
  "\u2192</w>": 2205,
  "observed</w>": 2206,
  "message</w>": 2207,
  "cle": 2208,
  "urea</w>": 2209,
  "latest</w>": 2210,
  "connector</w>": 2211,
  "head</w>": 2212,
  "sequ": 2213,
  "read</w>": 2214,
  "why</w>": 2215,
  "ently</w>": 2216,
  "act</w>": 2217,
  "assure</w>": 2218,
  "incorporated</w>": 2219,
  "pres": 2220,
  "mode": 2221,
  "sa": 2222,
  "note</w>": 2223,
  "depends</w>": 2224,
  "87</w>": 2225,
  "17": 2226,
  "140</w>": 2227,
  "ks</w>": 2228,
  "integer</w>": 2229,
  "certain</w>": 2230,
  "versus</w>": 2231,
  "ngear</w>": 2232,
  "ni</w>": 2233,
  "nk</w>": 2234,
  "occurrence</w>": 2235,
  "kilo": 2236,
  "it": 2237,
  "local</w>": 2238,
  "gaps</w>": 2239,
  "gu": 2240,
  "marked</w>": 2241,
  "extrapolation</w>": 2242,
  "lr</w>": 2243,
  "friction</w>": 2244,
  "fe": 2245,
  "movement</w>": 2246,
  "comparing</w>": 2247,
  "degrees</w>": 2248,
  "offset</w>": 2249,
  "lateral</w>": 2250,
  "reports</w>": 2251,
  "positioned</w>": 2252,
  "adjusting</w>": 2253,
  "{</w>": 2254,
  "}</w>": 2255,
  "assessed</w>": 2256,
  "overview</w>": 2257,
  "tight</w>": 2258,
  "cyclone</w>": 2259,
  "electrically</w>": 2260,
  "connectors</w>": 2261,
  "sho": 2262,
  "schematic</w>": 2263,
  "ze</w>": 2264,
  "mechan": 2265,
  "piping</w>": 2266,
  "depression</w>": 2267,
  "corrective</w>": 2268,
  "gravimetric</w>": 2269,
  "passing</w>": 2270,
  "diameters</w>": 2271,
  "filtered</w>": 2272,
  "is": 2273,
  "dilu": 2274,
  "soot</w>": 2275,
  "mid</w>": 2276,
  "rf": 2277,
  "month</w>": 2278,
  "accurately</w>": 2279,
  "disconnected</w>": 2280,
  "50": 2281,
  "07": 2282,
  "mgas</w>": 2283,
  "fcc</w>": 2284,
  "refer": 2285,
  "compressibility</w>": 2286,
  "represented</w>": 2287,
  "ufcycle</w>": 2288,
  "fin": 2289,
  "interpolati</w>": 2290,
  "precalculated</w>": 2291,
  "enables</w>": 2292,
  "vibration</w>": 2293,
  "chci</w>": 2294,
  "lier</w>": 2295,
  "refilled</w>": 2296,
  "alone</w>": 2297,
  "hertz</w>": 2298,
  "stoichiometric</w>": 2299,
  "payload</w>": 2300,
  "disable</w>": 2301,
  "iupr</w>": 2302,
  "ger</w>": 2303,
  "hmap</w>": 2304,
  "ref</w>": 2305,
  "tt</w>": 2306,
  "000": 2307,
  "799</w>": 2308,
  "car</w>": 2309,
  "continued</w>": 2310,
  "concerning</w>": 2311,
  "compressed</w>": 2312,
  "world</w>": 2313,
  "amendment</w>": 2314,
  "pe</w>": 2315,
  "ai": 2316,
  "au": 2317,
  "reducing</w>": 2318,
  "ef": 2319,
  "sely</w>": 2320,
  "cu": 2321,
  "am</w>": 2322,
  "2017</w>": 2323,
  "ac</w>": 2324,
  "apf</w>": 2325,
  "orifice</w>": 2326,
  "evaporation</w>": 2327,
  "quan": 2328,
  "viol": 2329,
  "pnd</w>": 2330,
  "chemical</w>": 2331,
  "oxides</w>": 2332,
  "lean</w>": 2333,
  "recirculation</w>": 2334,
  "swept</w>": 2335,
  "twice</w>": 2336,
  "represents</w>": 2337,
  "analy": 2338,
  "parent</w>": 2339,
  "basic</w>": 2340,
  "twin</w>": 2341,
  "rollers</w>": 2342,
  "situation</w>": 2343,
  "ou": 2344,
  "we": 2345,
  "em</w>": 2346,
  "por": 2347,
  "electricity</w>": 2348,
  "blend</w>": 2349,
  "activ": 2350,
  "cmvr</w>": 2351,
  "comprising</w>": 2352,
  "store</w>": 2353,
  "comprise</w>": 2354,
  "pumps</w>": 2355,
  "ol": 2356,
  "arri": 2357,
  "accomplished</w>": 2358,
  "memory</w>": 2359,
  "management</w>": 2360,
  "lies</w>": 2361,
  "recei": 2362,
  "causing</w>": 2363,
  "sche": 2364,
  "shor": 2365,
  "propor": 2366,
  "confirm</w>": 2367,
  "allow": 2368,
  "isation</w>": 2369,
  "mer": 2370,
  "identifier</w>": 2371,
  "communication</w>": 2372,
  "charac": 2373,
  "identi": 2374,
  "faults</w>": 2375,
  "operational</w>": 2376,
  "exist</w>": 2377,
  "outlined</w>": 2378,
  "represent</w>": 2379,
  "controlling</w>": 2380,
  "king</w>": 2381,
  "program": 2382,
  "resi": 2383,
  "become</w>": 2384,
  "owner</w>": 2385,
  "cvt</w>": 2386,
  "rating</w>": 2387,
  "commonly</w>": 2388,
  "asm</w>": 2389,
  "chronous</w>": 2390,
  "syn": 2391,
  "shows</w>": 2392,
  "certified</w>": 2393,
  "relation</w>": 2394,
  "notwithstanding</w>": 2395,
  "lambda</w>": 2396,
  "nov": 2397,
  "160</w>": 2398,
  "conducting</w>": 2399,
  "straight</w>": 2400,
  "plotted</w>": 2401,
  "flowchart</w>": 2402,
  "250</w>": 2403,
  "annual</w>": 2404,
  "manufacture</w>": 2405,
  "randomly</w>": 2406,
  "nature</w>": 2407,
  "completely</w>": 2408,
  "tly</w>": 2409,
  "cally</w>": 2410,
  "distances</w>": 2411,
  "leakage</w>": 2412,
  "ment</w>": 2413,
  "easily</w>": 2414,
  "removing</w>": 2415,
  "interior</w>": 2416,
  "adblue</w>": 2417,
  "initi": 2418,
  "mes</w>": 2419,
  "correspond</w>": 2420,
  "res": 2421,
  "def": 2422,
  "maintaining</w>": 2423,
  "irregularities</w>": 2424,
  "tdown</w>": 2425,
  "restriction</w>": 2426,
  "succe": 2427,
  "correctly</w>": 2428,
  "specify</w>": 2429,
  "consequences</w>": 2430,
  "clauses</w>": 2431,
  "explanation</w>": 2432,
  "malfunctioning</w>": 2433,
  "address</w>": 2434,
  "25": 2435,
  "very</w>": 2436,
  "accelerations</w>": 2437,
  "tmedium</w>": 2438,
  "lever</w>": 2439,
  "110</w>": 2440,
  "exclusion</w>": 2441,
  "gradient</w>": 2442,
  "resistances</w>": 2443,
  "mono": 2444,
  "113</w>": 2445,
  "them</w>": 2446,
  "upshift</w>": 2447,
  "comparison</w>": 2448,
  "though</w>": 2449,
  "dist": 2450,
  "mounting</w>": 2451,
  "ide": 2452,
  "supplied</w>": 2453,
  "mountain</w>": 2454,
  "loads</w>": 2455,
  "radi": 2456,
  "pan": 2457,
  "els</w>": 2458,
  "luggage</w>": 2459,
  "tread</w>": 2460,
  "environment</w>": 2461,
  "brakes</w>": 2462,
  "accelerated</w>": 2463,
  "avoided</w>": 2464,
  "overlap</w>": 2465,
  "overlapped</w>": 2466,
  "excessive</w>": 2467,
  "ga": 2468,
  "vj": 2469,
  "tmr</w>": 2470,
  "afr</w>": 2471,
  "01": 2472,
  "acting</w>": 2473,
  "ning</w>": 2474,
  "ain": 2475,
  "ign</w>": 2476,
  "fjdyno</w>": 2477,
  "fj</w>": 2478,
  "ser": 2479,
  "jth</w>": 2480,
  "stabilisation</w>": 2481,
  "trac": 2482,
  "tion": 2483,
  "ments</w>": 2484,
  "arrang": 2485,
  "illustrated</w>": 2486,
  "homogeneous</w>": 2487,
  "dew</w>": 2488,
  "elastomer</w>": 2489,
  "exposure</w>": 2490,
  "mixed</w>": 2491,
  "reynolds</w>": 2492,
  "variations</w>": 2493,
  "hand": 2494,
  "exposed</w>": 2495,
  "pp": 2496,
  "small</w>": 2497,
  "involved</w>": 2498,
  "quick</w>": 2499,
  "neither</w>": 2500,
  "integrating</w>": 2501,
  "residence</w>": 2502,
  "interfere</w>": 2503,
  "min": 2504,
  "incorpor": 2505,
  "optimi": 2506,
  "whenever</w>": 2507,
  "classified</w>": 2508,
  "theoretical</w>": 2509,
  "week</w>": 2510,
  "dedicated</w>": 2511,
  "ext": 2512,
  "released</w>": 2513,
  "stops</w>": 2514,
  "soon</w>": 2515,
  "regenerative</w>": 2516,
  "graphic": 2517,
  "connec": 2518,
  "discharging</w>": 2519,
  "cxhyoz</w>": 2520,
  "da</w>": 2521,
  "ra</w>": 2522,
  "unrealistic</w>": 2523,
  "cubic</w>": 2524,
  "09</w>": 2525,
  "ovc": 2526,
  "disabled</w>": 2527,
  "cssm</w>": 2528,
  "aerdec</w>": 2529,
  "ecind</w>": 2530,
  "kwltc</w>": 2531,
  "khigh</w>": 2532,
  "reviewed</w>": 2533,
  "illustr": 2534,
  "recordings</w>": 2535,
  "reliable</w>": 2536,
  "chcf</w>": 2537,
  "md</w>": 2538,
  "completing</w>": 2539,
  "doors</w>": 2540,
  "pedal</w>": 2541,
  "mhc</w>": 2542,
  "hottest</w>": 2543,
  "disablement</w>": 2544,
  "roads</w>": 2545,
  "freeze</w>": 2546,
  "erased</w>": 2547,
  "commanded</w>": 2548,
  "link</w>": 2549,
  "network</w>": 2550,
  "noise</w>": 2551,
  "registration</w>": 2552,
  "match</w>": 2553,
  "completeness</w>": 2554,
  "\u00b7</w>": 2555,
  "qm</w>": 2556,
  "ugas</w>": 2557,
  "0015": 2558,
  "00152</w>": 2559,
  "00110</w>": 2560,
  "eng</w>": 2561,
  "validating</w>": 2562,
  "rpak</w>": 2563,
  "roadgrade</w>": 2564,
  "header</w>": 2565,
  "regions</w>": 2566,
  "industry</w>": 2567,
  "126</w>": 2568,
  "defin": 2569,
  "essential</w>": 2570,
  "methodology</w>": 2571,
  "inten": 2572,
  "uniform</w>": 2573,
  "dc</w>": 2574,
  "development</w>": 2575,
  "uni": 2576,
  "road": 2577,
  "evalu": 2578,
  "there": 2579,
  "rd</w>": 2580,
  "tee</w>": 2581,
  "18": 2582,
  "chemilumine": 2583,
  "fs": 2584,
  "grap": 2585,
  "q</w>": 2586,
  "spec": 2587,
  "pa": 2588,
  "alph": 2589,
  "cr": 2590,
  "fs</w>": 2591,
  "oc": 2592,
  "mon": 2593,
  "ni": 2594,
  "non": 2595,
  "ank": 2596,
  "syste": 2597,
  "agrees</w>": 2598,
  "relati": 2599,
  "module</w>": 2600,
  "contribution</w>": 2601,
  "unchanged</w>": 2602,
  "dy": 2603,
  "mer</w>": 2604,
  "ong": 2605,
  "acts</w>": 2606,
  "deliver</w>": 2607,
  "rec": 2608,
  "tempor": 2609,
  "permanently</w>": 2610,
  "fluctu": 2611,
  "indirectly</w>": 2612,
  "ases</w>": 2613,
  "exclusively</w>": 2614,
  "consuming</w>": 2615,
  "storing</w>": 2616,
  "regardless</w>": 2617,
  "na": 2618,
  "bor": 2619,
  "ended</w>": 2620,
  "ay": 2621,
  "vent</w>": 2622,
  "parking</w>": 2623,
  "capability</w>": 2624,
  "sible</w>": 2625,
  "ble</w>": 2626,
  "emissi": 2627,
  "unable</w>": 2628,
  "res</w>": 2629,
  "fication</w>": 2630,
  "irre": 2631,
  "inspection</w>": 2632,
  "servicing</w>": 2633,
  "tain": 2634,
  "readiness</w>": 2635,
  "continuity</w>": 2636,
  "written</w>": 2637,
  "describing</w>": 2638,
  "007</w>": 2639,
  "imple": 2640,
  "technology</w>": 2641,
  "programme</w>": 2642,
  "biodiesel</w>": 2643,
  "describe</w>": 2644,
  "snow</w>": 2645,
  "missing</w>": 2646,
  "protected</w>": 2647,
  "chang": 2648,
  "associated</w>": 2649,
  "prev": 2650,
  "mption</w>": 2651,
  "requiring</w>": 2652,
  "digit</w>": 2653,
  "prohibition</w>": 2654,
  "acc": 2655,
  "id": 2656,
  "assess</w>": 2657,
  "mitted</w>": 2658,
  "public</w>": 2659,
  "bi": 2660,
  "wmi</w>": 2661,
  "fif": 2662,
  "clutches</w>": 2663,
  "ging</w>": 2664,
  "coupled</w>": 2665,
  "gearbo": 2666,
  "aerodynamics</w>": 2667,
  "prec": 2668,
  "fueled</w>": 2669,
  "engine's</w>": 2670,
  "largest</w>": 2671,
  "effectively</w>": 2672,
  "shape</w>": 2673,
  "app": 2674,
  "administrative</w>": 2675,
  "carr": 2676,
  "multiplicative</w>": 2677,
  "commercial</w>": 2678,
  "minated</w>": 2679,
  "chapter</w>": 2680,
  "causes</w>": 2681,
  "finished</w>": 2682,
  "void</w>": 2683,
  "fr": 2684,
  "vari": 2685,
  "normalised</w>": 2686,
  "tp</w>": 2687,
  "digits</w>": 2688,
  "sufficiently</w>": 2689,
  "ward</w>": 2690,
  "isol": 2691,
  "stabilise</w>": 2692,
  "outlets</w>": 2693,
  "own</w>": 2694,
  "restric": 2695,
  "litre</w>": 2696,
  "replenished</w>": 2697,
  "replen": 2698,
  "normality</w>": 2699,
  "minate</w>": 2700,
  "impor": 2701,
  "earlier</w>": 2702,
  "interruption</w>": 2703,
  "pid</w>": 2704,
  "services</w>": 2705,
  "deactivation</w>": 2706,
  "signific": 2707,
  "enter</w>": 2708,
  "self</w>": 2709,
  "often</w>": 2710,
  "employed</w>": 2711,
  "checksums</w>": 2712,
  "true</w>": 2713,
  "regulated</w>": 2714,
  "mented</w>": 2715,
  "tur": 2716,
  "oem</w>": 2717,
  "actu": 2718,
  "functions</w>": 2719,
  "occurring</w>": 2720,
  "delivered</w>": 2721,
  "remar": 2722,
  "dif": 2723,
  "651</w>": 2724,
  "848</w>": 2725,
  "respec": 2726,
  "engagement</w>": 2727,
  "des": 2728,
  "cending</w>": 2729,
  "ler</w>": 2730,
  "cel": 2731,
  "assumed</w>": 2732,
  "decrease</w>": 2733,
  "imax</w>": 2734,
  "im": 2735,
  "shifts</w>": 2736,
  "ther": 2737,
  "defines</w>": 2738,
  "leg": 2739,
  "distribution</w>": 2740,
  "rot": 2741,
  "ness</w>": 2742,
  "cen": 2743,
  "ular</w>": 2744,
  "ov": 2745,
  "high": 2746,
  "produc": 2747,
  "shapes</w>": 2748,
  "artifici": 2749,
  "deri": 2750,
  "ably</w>": 2751,
  "manually</w>": 2752,
  "reproduc": 2753,
  "depth</w>": 2754,
  "subtracted</w>": 2755,
  "harmonic</w>": 2756,
  "influences</w>": 2757,
  "towards</w>": 2758,
  "200": 2759,
  "minimised</w>": 2760,
  "indicates</w>": 2761,
  "substitu": 2762,
  "keep</w>": 2763,
  "empirical</w>": 2764,
  "vw</w>": 2765,
  "bt</w>": 2766,
  "rrind</w>": 2767,
  "cc</w>": 2768,
  "centr": 2769,
  "slippage</w>": 2770,
  "blow": 2771,
  "blower</w>": 2772,
  "bd</w>": 2773,
  "plac": 2774,
  "sec</w>": 2775,
  "are": 2776,
  "tors</w>": 2777,
  "ction</w>": 2778,
  "metre</w>": 2779,
  "acti": 2780,
  "001</w>": 2781,
  "extract</w>": 2782,
  "ran": 2783,
  "near</w>": 2784,
  "105</w>": 2785,
  "dra": 2786,
  "0015</w>": 2787,
  "discharge</w>": 2788,
  "inner</w>": 2789,
  "operations</w>": 2790,
  "fas": 2791,
  "integration</w>": 2792,
  "propylene</w>": 2793,
  "periodic</w>": 2794,
  "assuming</w>": 2795,
  "entering</w>": 2796,
  "stage</w>": 2797,
  "ences</w>": 2798,
  "uncorrected</w>": 2799,
  "stages</w>": 2800,
  "350</w>": 2801,
  "tetracontane</w>": 2802,
  "\u2044</w>": 2803,
  "nin</w>": 2804,
  "nout</w>": 2805,
  "bu": 2806,
  "monthly</w>": 2807,
  "ha": 2808,
  "ist": 2809,
  "thereafter</w>": 2810,
  "ozonator</w>": 2811,
  "mp": 2812,
  "27": 2813,
  "forced</w>": 2814,
  "polydisperse</w>": 2815,
  "prove</w>": 2816,
  "cf": 2817,
  "substituted</w>": 2818,
  "lation</w>": 2819,
  "explicitly</w>": 2820,
  "test": 2821,
  "mitting</w>": 2822,
  "selec": 2823,
  "sections</w>": 2824,
  "train</w>": 2825,
  "digital</w>": 2826,
  "sh</w>": 2827,
  "weighings</w>": 2828,
  "mm": 2829,
  "offsets</w>": 2830,
  "amp</w>": 2831,
  "wi": 2832,
  "kwh</w>": 2833,
  "ee</w>": 2834,
  "satur": 2835,
  "cre": 2836,
  "225</w>": 2837,
  "ared</w>": 2838,
  "reeci</w>": 2839,
  "breaks</w>": 2840,
  "dsj</w>": 2841,
  "formula</w>": 2842,
  "cycling</w>": 2843,
  "potenti": 2844,
  "latched</w>": 2845,
  "retention</w>": 2846,
  "resol": 2847,
  "purging</w>": 2848,
  "composed</w>": 2849,
  "rig</w>": 2850,
  "execution</w>": 2851,
  "consul": 2852,
  "feed</w>": 2853,
  "adequately</w>": 2854,
  "deficiencies</w>": 2855,
  "grades</w>": 2856,
  "deteriorated</w>": 2857,
  "2016</w>": 2858,
  "ator": 2859,
  "audit</w>": 2860,
  "depic": 2861,
  "midc</w>": 2862,
  "chiller</w>": 2863,
  "tot</w>": 2864,
  "qmaw</w>": 2865,
  "000480</w>": 2866,
  "0016": 2867,
  "00153</w>": 2868,
  "00111</w>": 2869,
  "percentile</w>": 2870,
  "519</w>": 2871,
  "320</w>": 2872,
  "798</w>": 2873,
  "history</w>": 2874,
  "recall</w>": 2875,
  "campaign</w>": 2876,
  "did</w>": 2877,
  "worldwide</w>": 2878,
  "harmonized</w>": 2879,
  "gvw</w>": 2880,
  "116</w>": 2881,
  "cont": 2882,
  "annexure</w>": 2883,
  "asp": 2884,
  "adopted</w>": 2885,
  "transpo": 2886,
  "wh": 2887,
  "la": 2888,
  "harmon": 2889,
  "wp</w>": 2890,
  "party</w>": 2891,
  "global</w>": 2892,
  "2009</w>": 2893,
  "als</w>": 2894,
  "ided</w>": 2895,
  "mit": 2896,
  "adopt</w>": 2897,
  "formul": 2898,
  "fo": 2899,
  "coast</w>": 2900,
  "continu": 2901,
  "aired</w>": 2902,
  "responsibility</w>": 2903,
  "atory</w>": 2904,
  "ribu": 2905,
  "eu</w>": 2906,
  "altern": 2907,
  "cfd</w>": 2908,
  "cfo</w>": 2909,
  "aldehyde</w>": 2910,
  "defl": 2911,
  "ection</w>": 2912,
  "chromato": 2913,
  "las": 2914,
  "fied</w>": 2915,
  "natural</w>": 2916,
  "fc": 2917,
  "pa</w>": 2918,
  "olef": 2919,
  "rcb</w>": 2920,
  "ver</w>": 2921,
  "dop</w>": 2922,
  "rou": 2923,
  "constitu": 2924,
  "recipro": 2925,
  "rotary</w>": 2926,
  "calibrate</w>": 2927,
  "mati": 2928,
  "aims</w>": 2929,
  "measurable</w>": 2930,
  "evaluate</w>": 2931,
  "puts</w>": 2932,
  "wher": 2933,
  "takes</w>": 2934,
  "transp": 2935,
  "oppo": 2936,
  "ities</w>": 2937,
  "cab": 2938,
  "coupling</w>": 2939,
  "dered</w>": 2940,
  "custo": 2941,
  "resisting</w>": 2942,
  "frictional</w>": 2943,
  "approxim": 2944,
  "tracting</w>": 2945,
  "repeatable</w>": 2946,
  "allocated</w>": 2947,
  "trailer</w>": 2948,
  "coasting</w>": 2949,
  "consu": 2950,
  "fying</w>": 2951,
  "decreases</w>": 2952,
  "machines</w>": 2953,
  "primarily</w>": 2954,
  "recharging</w>": 2955,
  "emergency</w>": 2956,
  "converting</w>": 2957,
  "modul": 2958,
  "veness</w>": 2959,
  "distinct</w>": 2960,
  "densities</w>": 2961,
  "air": 2962,
  "deposi": 2963,
  "fluor": 2964,
  "multilayer</w>": 2965,
  "detecting</w>": 2966,
  "identifying</w>": 2967,
  "illu": 2968,
  "notify</w>": 2969,
  "forms</w>": 2970,
  "itself</w>": 2971,
  "aspi": 2972,
  "metering</w>": 2973,
  "much</w>": 2974,
  "gradual</w>": 2975,
  "dimen": 2976,
  "throttle</w>": 2977,
  "pursu": 2978,
  "mp</w>": 2979,
  "rout": 2980,
  "erasing</w>": 2981,
  "command</w>": 2982,
  "exist": 2983,
  "submit</w>": 2984,
  "foreseeable</w>": 2985,
  "particular": 2986,
  "pi": 2987,
  "establishment</w>": 2988,
  "equi": 2989,
  "identify</w>": 2990,
  "rea": 2991,
  "authorities</w>": 2992,
  "oper": 2993,
  "ventilation</w>": 2994,
  "opening</w>": 2995,
  "vable</w>": 2996,
  "thered</w>": 2997,
  "loc": 2998,
  "lock": 2999,
  "authorised</w>": 3000,
  "mable</w>": 3001,
  "ek</w>": 3002,
  "tamp": 3003,
  "substantially</w>": 3004,
  "strictly</w>": 3005,
  "confidential</w>": 3006,
  "applicability</w>": 3007,
  "dro": 3008,
  "bl": 3009,
  "attributed</w>": 3010,
  "ft</w>": 3011,
  "nnnnnnnnnnnnnnn</w>": 3012,
  "pr</w>": 3013,
  "core</w>": 3014,
  "ge</w>": 3015,
  "physical</w>": 3016,
  "ious</w>": 3017,
  "memb": 3018,
  "notified</w>": 3019,
  "technique</w>": 3020,
  "dur": 3021,
  "cylinders</w>": 3022,
  "oxidizing</w>": 3023,
  "filtering</w>": 3024,
  "pul": 3025,
  "pas": 3026,
  "multi</w>": 3027,
  "turb": 3028,
  "jec": 3029,
  "ll</w>": 3030,
  "ligh": 3031,
  "consider</w>": 3032,
  "adver": 3033,
  "additionally</w>": 3034,
  "circumstances</w>": 3035,
  "create</w>": 3036,
  "undertaken</w>": 3037,
  "roug": 3038,
  "affec": 3039,
  "variants</w>": 3040,
  "aging</w>": 3041,
  "bber</w>": 3042,
  "fails</w>": 3043,
  "supervi": 3044,
  "inform</w>": 3045,
  "\u22ef</w>": 3046,
  "decisions</w>": 3047,
  "370</w>": 3048,
  "driveline</w>": 3049,
  "evs</w>": 3050,
  "jus": 3051,
  "cconst</w>": 3052,
  "down": 3053,
  "margin</w>": 3054,
  "esti": 3055,
  "chooses</w>": 3056,
  "inst": 3057,
  "feature</w>": 3058,
  "boun": 3059,
  "detec": 3060,
  "ate": 3061,
  "understood</w>": 3062,
  "visual</w>": 3063,
  "intensity</w>": 3064,
  "appro": 3065,
  "turn</w>": 3066,
  "displ": 3067,
  "ayed</w>": 3068,
  "tant</w>": 3069,
  "incorrect</w>": 3070,
  "rectified</w>": 3071,
  "situations</w>": 3072,
  "tain</w>": 3073,
  "ci": 3074,
  "select</w>": 3075,
  "approach</w>": 3076,
  "limi": 3077,
  "ually</w>": 3078,
  "restarted</w>": 3079,
  "owners</w>": 3080,
  "uses</w>": 3081,
  "enti": 3082,
  "ain</w>": 3083,
  "ptions</w>": 3084,
  "ta</w>": 3085,
  "versions</w>": 3086,
  "reason": 3087,
  "sudden</w>": 3088,
  "hi": 3089,
  "curr": 3090,
  "diagra": 3091,
  "practical</w>": 3092,
  "cor": 3093,
  "documents</w>": 3094,
  "issu": 3095,
  "signature</w>": 3096,
  "pers": 3097,
  "organ": 3098,
  "entation</w>": 3099,
  "fic": 3100,
  "xxx</w>": 3101,
  "fications</w>": 3102,
  "sever": 3103,
  "16": 3104,
  "1477</w>": 3105,
  "162</w>": 3106,
  "profiles</w>": 3107,
  "driveability</w>": 3108,
  "problems</w>": 3109,
  "impro": 3110,
  "906</w>": 3111,
  "111</w>": 3112,
  "individually</w>": 3113,
  "reasons</w>": 3114,
  "ically</w>": 3115,
  "shifting</w>": 3116,
  "prescriptions</w>": 3117,
  "nlim</w>": 3118,
  "tons</w>": 3119,
  "decelerations</w>": 3120,
  "covers</w>": 3121,
  "iref</w>": 3122,
  "usage</w>": 3123,
  "designs</w>": 3124,
  "eng": 3125,
  "turbulence</w>": 3126,
  "boundary</w>": 3127,
  "vector</w>": 3128,
  "agencies</w>": 3129,
  "peaked</w>": 3130,
  "snowflake</w>": 3131,
  "pms</w>": 3132,
  "rr</w>": 3133,
  "waived</w>": 3134,
  "future</w>": 3135,
  "clear": 3136,
  "adjust": 3137,
  "ible</w>": 3138,
  "reduced</w>": 3139,
  "braking</w>": 3140,
  "steering</w>": 3141,
  "necessarily</w>": 3142,
  "enced</w>": 3143,
  "rejection</w>": 3144,
  "recalculated</w>": 3145,
  "top</w>": 3146,
  "travel</w>": 3147,
  "stan": 3148,
  "flagged</w>": 3149,
  "ques</w>": 3150,
  "better</w>": 3151,
  "convergence</w>": 3152,
  "compensation</w>": 3153,
  "us</w>": 3154,
  "rrh</w>": 3155,
  "pat": 3156,
  "yields</w>": 3157,
  "impose</w>": 3158,
  "correcting</w>": 3159,
  "dyno</w>": 3160,
  "fdj</w>": 3161,
  "act": 3162,
  "tj</w>": 3163,
  "rectang": 3164,
  "horizontal</w>": 3165,
  "locations</w>": 3166,
  "exhib": 3167,
  "incre": 3168,
  "differs</w>": 3169,
  "deposition</w>": 3170,
  "conductive</w>": 3171,
  "grounded</w>": 3172,
  "electrostatic</w>": 3173,
  "exit</w>": 3174,
  "tailpipes</w>": 3175,
  "insul": 3176,
  "tivity</w>": 3177,
  "substanti": 3178,
  "thermally</w>": 3179,
  "bri": 3180,
  "scru": 3181,
  "bbed</w>": 3182,
  "\uf0b3</w>": 3183,
  "wing</w>": 3184,
  "zed</w>": 3185,
  "princip": 3186,
  "ensures</w>": 3187,
  "sions</w>": 3188,
  "consist": 3189,
  "laminar</w>": 3190,
  "calibrating</w>": 3191,
  "sensi": 3192,
  "sc": 3193,
  "restrictor</w>": 3194,
  "reset</w>": 3195,
  "six</w>": 3196,
  "qssv</w>": 3197,
  "si</w>": 3198,
  "reasonable</w>": 3199,
  "enough</w>": 3200,
  "ual</w>": 3201,
  "injected</w>": 3202,
  "ten": 3203,
  "fil": 3204,
  "ionisation</w>": 3205,
  "oms</w>": 3206,
  "instance</w>": 3207,
  "coll": 3208,
  "impactor</w>": 3209,
  "typically</w>": 3210,
  "classification</w>": 3211,
  "tip</w>": 3212,
  "assembly</w>": 3213,
  "extrac": 3214,
  "decreased</w>": 3215,
  "68": 3216,
  "std</w>": 3217,
  "environmental</w>": 3218,
  "medi": 3219,
  "lified</w>": 3220,
  "buoyancy</w>": 3221,
  "legal</w>": 3222,
  "700</w>": 3223,
  "ot</w>": 3224,
  "avo": 3225,
  "zation</w>": 3226,
  "diluting</w>": 3227,
  "parti": 3228,
  "micro": 3229,
  "ure</w>": 3230,
  "electronically</w>": 3231,
  "demonstr": 3232,
  "pncs</w>": 3233,
  "electrometer</w>": 3234,
  "geo": 3235,
  "du": 3236,
  "mber</w>": 3237,
  "prejudice</w>": 3238,
  "declare</w>": 3239,
  "consump": 3240,
  "requests</w>": 3241,
  "subtraction</w>": 3242,
  "scaled</w>": 3243,
  "ones</w>": 3244,
  "033</w>": 3245,
  "linearly</w>": 3246,
  "amp": 3247,
  "demonstrates</w>": 3248,
  "controls</w>": 3249,
  "regenerations</w>": 3250,
  "drained</w>": 3251,
  "contamination</w>": 3252,
  "pushed</w>": 3253,
  "initiation</w>": 3254,
  "low": 3255,
  "solely</w>": 3256,
  "exp": 3257,
  "dly</w>": 3258,
  "dust</w>": 3259,
  "item</w>": 3260,
  "begin</w>": 3261,
  "conclusion</w>": 3262,
  "rechecked</w>": 3263,
  "ri</w>": 3264,
  "ampere</w>": 3265,
  "ah</w>": 3266,
  "proce": 3267,
  "\u222b</w>": 3268,
  "482</w>": 3269,
  "willans</w>": 3270,
  "alternator</w>": 3271,
  "0611</w>": 3272,
  "cf</w>": 3273,
  "xx</w>": 3274,
  "008</w>": 3275,
  "mix</w>": 3276,
  "by": 3277,
  "cch</w>": 3278,
  "lh</w>": 3279,
  "pt</w>": 3280,
  "vented</w>": 3281,
  "825</w>": 3282,
  "cy": 3283,
  "04</w>": 3284,
  "308</w>": 3285,
  "ect</w>": 3286,
  "exempted</w>": 3287,
  "ecycle</w>": 3288,
  "interpolatio</w>": 3289,
  "aerave</w>": 3290,
  "ecfinal</w>": 3291,
  "eaerfinal</w>": 3292,
  "aerind</w>": 3293,
  "eaerind</w>": 3294,
  "weighte</w>": 3295,
  "ubestp</w>": 3296,
  "uf": 3297,
  "normalized</w>": 3298,
  "23": 3299,
  "aper": 3300,
  "tures</w>": 3301,
  "wall</w>": 3302,
  "begins</w>": 3303,
  "er's</w>": 3304,
  "do": 3305,
  "weeks</w>": 3306,
  "witness</w>": 3307,
  "washer</w>": 3308,
  "disconnection</w>": 3309,
  "propo": 3310,
  "hs</w>": 3311,
  "emptied</w>": 3312,
  "build</w>": 3313,
  "moved</w>": 3314,
  "temp": 3315,
  "constituents</w>": 3316,
  "cro": 3317,
  "890</w>": 3318,
  "rich</w>": 3319,
  "bank</w>": 3320,
  "ass": 3321,
  "exper": 3322,
  "repeat</w>": 3323,
  "others</w>": 3324,
  "acce": 3325,
  "440</w>": 3326,
  "recogn": 3327,
  "comprehensive</w>": 3328,
  "boost</w>": 3329,
  "inguishing</w>": 3330,
  "executed</w>": 3331,
  "addres": 3332,
  "loop</w>": 3333,
  "communic": 3334,
  "08</w>": 3335,
  "counters</w>": 3336,
  "granting</w>": 3337,
  "vt</w>": 3338,
  "increment</w>": 3339,
  "numerical</w>": 3340,
  "resume</w>": 3341,
  "responses</w>": 3342,
  "vin</w>": 3343,
  "facilitate</w>": 3344,
  "blending</w>": 3345,
  "million</w>": 3346,
  "electromagnetic</w>": 3347,
  "interferences</w>": 3348,
  "shocks</w>": 3349,
  "variability</w>": 3350,
  "unduly</w>": 3351,
  "undiluted</w>": 3352,
  "eo</w>": 3353,
  "990</w>": 3354,
  "traceably</w>": 3355,
  "fulfill</w>": 3356,
  "transient</w>": 3357,
  "multipl": 3358,
  "001": 3359,
  "auto": 3360,
  "decl": 3361,
  "ched</w>": 3362,
  "missi": 3363,
  "develo": 3364,
  "go": 3365,
  "\u2022": 3366,
  "tru": 3367,
  "ics</w>": 3368,
  "ulation</w>": 3369,
  "prepar": 3370,
  "assi": 3371,
  "sition</w>": 3372,
  "ays</w>": 3373,
  "ational</w>": 3374,
  "tra": 3375,
  "am": 3376,
  "ort</w>": 3377,
  "spar": 3378,
  "gi": 3379,
  "ces</w>": 3380,
  "arily</w>": 3381,
  "statisti": 3382,
  "stor": 3383,
  "attribu": 3384,
  "vice</w>": 3385,
  "sens": 3386,
  "del": 3387,
  "effec": 3388,
  "dri": 3389,
  "venti": 3390,
  "ne</w>": 3391,
  "tified</w>": 3392,
  "pr": 3393,
  "layer</w>": 3394,
  "sul": 3395,
  "lay": 3396,
  "vap": 3397,
  "group": 3398,
  "audi": 3399,
  "ack</w>": 3400,
  "mis": 3401,
  "fir": 3402,
  "dule</w>": 3403,
  "her": 3404,
  "author": 3405,
  "dat": 3406,
  "amoun": 3407,
  "ants</w>": 3408,
  "prohib": 3409,
  "stant</w>": 3410,
  "tted</w>": 3411,
  "contain": 3412,
  "ith": 3413,
  "prote": 3414,
  "exce": 3415,
  "exten": 3416,
  "hybri": 3417,
  "op": 3418,
  "yn": 3419,
  "mit</w>": 3420,
  "ing": 3421,
  "equival": 3422,
  "tw": 3423,
  "establish": 3424,
  "consec": 3425,
  "uti": 3426,
  "cer": 3427,
  "ric": 3428,
  "ap</w>": 3429,
  "ish": 3430,
  "ash": 3431,
  "scal": 3432,
  "ach": 3433,
  "cul": 3434,
  "nor": 3435,
  "\u2014": 3436,
  "gg": 3437,
  "proble": 3438,
  "reag": 3439,
  "ishing</w>": 3440,
  "zing</w>": 3441,
  "hol": 3442,
  "hic": 3443,
  "comple": 3444,
  "lled</w>": 3445,
  "veri": 3446,
  "appropri": 3447,
  "ately</w>": 3448,
  "likel": 3449,
  "od</w>": 3450,
  "attach": 3451,
  "check": 3452,
  "main": 3453,
  "replac": 3454,
  "ross</w>": 3455,
  "inerti": 3456,
  "onic</w>": 3457,
  "frequ": 3458,
  "gear": 3459,
  "mat": 3460,
  "ali": 3461,
  "incremen": 3462,
  "tal</w>": 3463,
  "fer": 3464,
  "pass": 3465,
  "turbul": 3466,
  "amber</w>": 3467,
  "extrapol": 3468,
  "tic</w>": 3469,
  "der</w>": 3470,
  "deceler": 3471,
  "chron": 3472,
  "win": 3473,
  "ol</w>": 3474,
  "gra": 3475,
  "techni": 3476,
  "ches</w>": 3477,
  "restr": 3478,
  "exclu": 3479,
  "compli": 3480,
  "des</w>": 3481,
  "cir": 3482,
  "stru": 3483,
  "qui": 3484,
  "move": 3485,
  "ties</w>": 3486,
  "matic</w>": 3487,
  "int</w>": 3488,
  "pipes</w>": 3489,
  "situ": 3490,
  "homogen": 3491,
  "stabili": 3492,
  "minimi": 3493,
  "aps</w>": 3494,
  "tered</w>": 3495,
  "compar": 3496,
  "ight</w>": 3497,
  "ater</w>": 3498,
  "analys": 3499,
  "conta": 3500,
  "seal": 3501,
  "metry</w>": 3502,
  "ass</w>": 3503,
  "tment</w>": 3504,
  "fe</w>": 3505,
  "\u22c5": 3506,
  "intro": 3507,
  "duce</w>": 3508,
  "prop": 3509,
  "alternati": 3510,
  "ene</w>": 3511,
  "ely</w>": 3512,
  "disperse</w>": 3513,
  "ovchev": 3514,
  "our</w>": 3515,
  "instru": 3516,
  "dul": 3517,
  "oi": 3518,
  "ever</w>": 3519,
  "acu": 3520,
  "yiel": 3521,
  "sses</w>": 3522,
  "cx": 3523,
  "categor": 3524,
  "tively</w>": 3525,
  "deno": 3526,
  "06": 3527,
  "squ": 3528,
  "milli": 3529,
  "devi": 3530,
  "bra": 3531,
  "chev": 3532,
  "aer": 3533,
  "nm": 3534,
  "gn</w>": 3535,
  "charg": 3536,
  "ure": 3537,
  "ous</w>": 3538,
  "tun": 3539,
  "desi": 3540,
  "with": 3541,
  "\uf0a3": 3542,
  "ak": 3543,
  "wit": 3544,
  "char": 3545,
  "tan": 3546,
  "ven</w>": 3547,
  "pressur": 3548,
  "ent": 3549,
  "ard</w>": 3550,
  "defec": 3551,
  "ur</w>": 3552,
  "ential</w>": 3553,
  "emplo": 3554,
  "ements</w>": 3555,
  "lli": 3556,
  "av": 3557,
  "ail</w>": 3558,
  "dam": 3559,
  "ares</w>": 3560,
  "comb": 3561,
  "tude</w>": 3562,
  "longitu": 3563,
  "manifol": 3564,
  "flu": 3565,
  "fix": 3566,
  "bb": 3567,
  "multi": 3568,
  "after": 3569,
  "indic": 3570,
  "anc": 3571,
  "ial</w>": 3572,
  "ff</w>": 3573,
  "cm": 3574,
  "iti": 3575,
  "ust</w>": 3576,
  "glob": 3577,
  "et": 3578,
  "tification</w>": 3579,
  "pol": 3580,
  "ca": 3581,
  "oxide</w>": 3582,
  "nit": 3583,
  "capac": 3584,
  "liqui": 3585,
  "deple": 3586,
  "rele": 3587,
  "taneous</w>": 3588,
  "shif": 3589,
  "onally</w>": 3590,
  "period": 3591,
  "ical</w>": 3592,
  "urs</w>": 3593,
  "sen</w>": 3594,
  "switch": 3595,
  "cover": 3596,
  "ines</w>": 3597,
  "modi": 3598,
  "disab": 3599,
  "gran": 3600,
  "mentation</w>": 3601,
  "assemb": 3602,
  "men": 3603,
  "enc": 3604,
  "ption</w>": 3605,
  "vibr": 3606,
  "ise</w>": 3607,
  "ased</w>": 3608,
  "eable</w>": 3609,
  "jected</w>": 3610,
  "wri": 3611,
  "techno": 3612,
  "gies</w>": 3613,
  "particul": 3614,
  "sive</w>": 3615,
  "mess": 3616,
  "ales</w>": 3617,
  "run": 3618,
  "aint</w>": 3619,
  "confir": 3620,
  "view</w>": 3621,
  "tical</w>": 3622,
  "ind": 3623,
  "tify</w>": 3624,
  "arith": 3625,
  "choo": 3626,
  "tre": 3627,
  "beco": 3628,
  "manded</w>": 3629,
  "lin": 3630,
  "ss</w>": 3631,
  "sts</w>": 3632,
  "cri": 3633,
  "expl": 3634,
  "free": 3635,
  "ready</w>": 3636,
  "tter</w>": 3637,
  "reli": 3638,
  "duc": 3639,
  "cat": 3640,
  "certi": 3641,
  "deli": 3642,
  "ther</w>": 3643,
  "90": 3644,
  "ds": 3645,
  "come</w>": 3646,
  "mb": 3647,
  "transi": 3648,
  "acceler": 3649,
  "standing</w>": 3650,
  "ending</w>": 3651,
  "fur": 3652,
  "ki": 3653,
  "gri": 3654,
  "\u221e": 3655,
  "dic": 3656,
  "lig": 3657,
  "regi": 3658,
  "sur": 3659,
  "slo": 3660,
  "recom": 3661,
  "ously</w>": 3662,
  "direc": 3663,
  "symb": 3664,
  "ang": 3665,
  "corr</w>": 3666,
  "compens": 3667,
  "anned</w>": 3668,
  "repeat": 3669,
  "ax": 3670,
  "descri": 3671,
  "fa": 3672,
  "ement</w>": 3673,
  "ay</w>": 3674,
  "quanti": 3675,
  "conduc": 3676,
  "gh": 3677,
  "penetr": 3678,
  "hib": 3679,
  "sonic</w>": 3680,
  "ality</w>": 3681,
  "vity</w>": 3682,
  "io": 3683,
  "sel": 3684,
  "interfer": 3685,
  "ann": 3686,
  "achie": 3687,
  "est</w>": 3688,
  "neutr": 3689,
  "equ": 3690,
  "ste": 3691,
  "extr": 3692,
  "bing</w>": 3693,
  "photo": 3694,
  "ous": 3695,
  "wee": 3696,
  "linear": 3697,
  "olu": 3698,
  "orig": 3699,
  "orific": 3700,
  "refl": 3701,
  "fulfil": 3702,
  "ari": 3703,
  "ful</w>": 3704,
  "chil": 3705,
  "ton": 3706,
  "car": 3707,
  "ssive</w>": 3708,
  "\uf0d7": 3709,
  "elec": 3710,
  "transduc": 3711,
  "atur": 3712,
  "hy": 3713,
  "wc</w>": 3714,
  "integr": 3715,
  "resul": 3716,
  "conclu": 3717,
  "zero": 3718,
  "sse</w>": 3719,
  "indi": 3720,
  "interpol": 3721,
  "pm": 3722,
  "ack": 3723,
  "ets</w>": 3724,
  "achiev": 3725,
  "liers</w>": 3726,
  "carb": 3727,
  "ural</w>": 3728,
  "enclo": 3729,
  "ssing</w>": 3730,
  "bility</w>": 3731,
  "perme": 3732,
  "aining</w>": 3733,
  "buil": 3734,
  "olution</w>": 3735,
  "commer": 3736,
  "put</w>": 3737,
  "ner</w>": 3738,
  "coup": 3739,
  "digit": 3740,
  "concer": 3741,
  "elev": 3742,
  "ition</w>": 3743,
  "percen": 3744,
  "ase</w>": 3745,
  "reg": 3746,
  "ib": 3747,
  "ility</w>": 3748,
  "discre": 3749,
  "cool": 3750,
  "14": 3751,
  "nel</w>": 3752,
  "numerat": 3753,
  "denomin": 3754,
  "manufactur": 3755,
  "registr": 3756,
  "har": 3757,
  "star": 3758,
  "ables</w>": 3759,
  "col": 3760,
  "\u0301": 3761,
  "annex": 3762,
  "maw</w>": 3763,
  "tern": 3764,
  "pay": 3765,
  "est": 3766,
  "mu": 3767,
  "vs</w>": 3768,
  "back": 3769,
  "instal": 3770,
  "imal</w>": 3771,
  "plu": 3772,
  "interrup": 3773,
  "gh</w>": 3774,
  "trace": 3775,
  "execu": 3776,
  "mental</w>": 3777,
  "conver": 3778,
  "maint": 3779,
  "divid": 3780,
  "ast</w>": 3781,
  "fuel": 3782,
  "ethan": 3783,
  "\u2260": 3784,
  "compri": 3785,
  "os</w>": 3786,
  "files</w>": 3787,
  "comm": 3788,
  "carri": 3789,
  "colum": 3790,
  "clu": 3791,
  "sour": 3792,
  "ong</w>": 3793,
  "ceed</w>": 3794,
  "ef</w>": 3795,
  "aux": 3796,
  "lar": 3797,
  "ject</w>": 3798,
  "realistic</w>": 3799,
  "sted</w>": 3800,
  "sign": 3801,
  "consider": 3802,
  "stance</w>": 3803,
  "electr": 3804,
  "cap": 3805,
  "ir</w>": 3806,
  "inclu": 3807,
  "trail": 3808,
  "actor</w>": 3809,
  "igh</w>": 3810,
  "reduc": 3811,
  "regar": 3812,
  "aid</w>": 3813,
  "ee": 3814,
  "techn": 3815,
  "atmospher": 3816,
  "power": 3817,
  "expres": 3818,
  "effici": 3819,
  "sting</w>": 3820,
  "han": 3821,
  "ced</w>": 3822,
  "duly</w>": 3823,
  "mor": 3824,
  "gen</w>": 3825,
  "rm</w>": 3826,
  "ful": 3827,
  "super": 3828,
  "reci": 3829,
  "let</w>": 3830,
  "arithme": 3831,
  "dix</w>": 3832,
  "predomin": 3833,
  "\uf073": 3834,
  "mation</w>": 3835,
  "defe": 3836,
  "explic": 3837,
  "sen": 3838,
  "eras": 3839,
  "grad": 3840,
  "remedi": 3841,
  "minal</w>": 3842,
  "off": 3843,
  "fro": 3844,
  "estim": 3845,
  "respon": 3846,
  "ron": 3847,
  "ite": 3848,
  "ess</w>": 3849,
  "classi": 3850,
  "divi": 3851,
  "velo": 3852,
  "der": 3853,
  "numer": 3854,
  "numb": 3855,
  "\ud835\udfce": 3856,
  "\ud835\udfcf": 3857,
  "\ud835\udfd0": 3858,
  "max": 3859,
  "homo": 3860,
  "wot</w>": 3861,
  "practi": 3862,
  "pped</w>": 3863,
  "cann": 3864,
  "pu": 3865,
  "text</w>": 3866,
  "prim": 3867,
  "acy</w>": 3868,
  "pen": 3869,
  "tex": 3870,
  "ors</w>": 3871,
  "rati": 3872,
  "ners</w>": 3873,
  "dynam": 3874,
  "prescri": 3875,
  "om</w>": 3876,
  "combin": 3877,
  "obser": 3878,
  "tail": 3879,
  "hu": 3880,
  "\u221d": 3881,
  "tor": 3882,
  "veloc": 3883,
  "fj": 3884,
  "thir": 3885,
  "dynamo": 3886,
  "ventur": 3887,
  "elasto": 3888,
  "humi": 3889,
  "eously</w>": 3890,
  "lets</w>": 3891,
  "differ": 3892,
  "yi": 3893,
  "sli": 3894,
  "interce": 3895,
  "cho": 3896,
  "sco": 3897,
  "sity</w>": 3898,
  "converg": 3899,
  "weigh": 3900,
  "volu": 3901,
  "eth": 3902,
  "ylene</w>": 3903,
  "stop": 3904,
  "cks</w>": 3905,
  "accord": 3906,
  "spac": 3907,
  "moun": 3908,
  "accept": 3909,
  "stitu": 3910,
  "roun": 3911,
  "sett": 3912,
  "groun": 3913,
  "meth": 3914,
  "lp": 3915,
  "dition</w>": 3916,
  "logy</w>": 3917,
  "proper": 3918,
  "rup": 3919,
  "confi": 3920,
  "dence</w>": 3921,
  "kes</w>": 3922,
  "cataly": 3923,
  "oz": 3924,
  "ans</w>": 3925,
  "ick</w>": 3926,
  "electro": 3927,
  "stati": 3928,
  "ear": 3929,
  "compo": 3930,
  "ected</w>": 3931,
  "\uf06d": 3932,
  "function": 3933,
  "ffici": 3934,
  "cip": 3935,
  "smooth": 3936,
  "lers</w>": 3937,
  "err": 3938,
  "eous</w>": 3939,
  "feat": 3940,
  "ured</w>": 3941,
  "condition": 3942,
  "accep": 3943,
  "pair": 3944,
  "\uf05b": 3945,
  "\uf05d": 3946,
  "inte": 3947,
  "bio": 3948,
  "ned</w>": 3949,
  "fec": 3950,
  "individ": 3951,
  "revolu": 3952,
  "sis</w>": 3953,
  "bas": 3954,
  "fch": 3955,
  "permissi": 3956,
  "480</w>": 3957,
  "ght</w>": 3958,
  "circum": 3959,
  "ference</w>": 3960,
  "boo": 3961,
  "declar": 3962,
  "pn": 3963,
  "inal</w>": 3964,
  "nal</w>": 3965,
  "duction</w>": 3966,
  "infr": 3967,
  "scre": 3968,
  "ke": 3969,
  "smal": 3970,
  "absor": 3971,
  "fected</w>": 3972,
  "reco": 3973,
  "soak": 3974,
  "lon": 3975,
  "exchang": 3976,
  "lat": 3977,
  "beg": 3978,
  "amb": 3979,
  "recor": 3980,
  "thor": 3981,
  "control": 3982,
  "cycl": 3983,
  "aro": 3984,
  "ven": 3985,
  "ell</w>": 3986,
  "stand": 3987,
  "diur": 3988,
  "confor": 3989,
  "culation</w>": 3990,
  "depressur": 3991,
  "brea": 3992,
  "exi": 3993,
  "experi": 3994,
  "stoichio": 3995,
  "rap": 3996,
  "alle": 3997,
  "ingu": 3998,
  "ished</w>": 3999,
  "ank</w>": 4000,
  "compressi": 4001,
  "misfir": 4002,
  "ado": 4003,
  "feas": 4004,
  "facilit": 4005,
  "fra": 4006,
  "circu": 4007,
  "standardis": 4008,
  "ified</w>": 4009,
  "mani": 4010,
  "applic": 4011,
  "monitor": 4012,
  "opti": 4013,
  "comparis": 4014,
  "sing": 4015,
  "abbrevi": 4016,
  "carbons</w>": 4017,
  "facili": 4018,
  "constru": 4019,
  "att": 4020,
  "ach</w>": 4021,
  "publ": 4022,
  "ex</w>": 4023,
  "environ": 4024,
  "nee": 4025,
  "mag": 4026,
  "snow": 4027,
  "suffici": 4028,
  "ency</w>": 4029,
  "tol": 4030,
  "ree": 4031,
  "ances</w>": 4032,
  "prefer": 4033,
  "represent": 4034,
  "ctions</w>": 4035,
  "rece": 4036,
  "tle</w>": 4037,
  "eeds</w>": 4038,
  "correspon": 4039,
  "reach": 4040,
  "stabiliz": 4041,
  "cub": 4042,
  "mic": 4043,
  "sto": 4044,
  "ear</w>": 4045,
  "dou": 4046,
  "igh": 4047,
  "dry": 4048,
  "mix": 4049,
  "assu": 4050,
  "posi": 4051,
  "graphic</w>": 4052,
  "remain": 4053,
  "normal": 4054,
  "iz": 4055,
  "sure</w>": 4056,
  "fu": 4057,
  "aero": 4058,
  "ols</w>": 4059,
  "multip": 4060,
  "emer": 4061,
  "dd": 4062,
  "\uf06c": 4063,
  "standar": 4064,
  "aver": 4065,
  "horizon": 4066,
  "extern": 4067,
  "responsi": 4068,
  "ili": 4069,
  "gre": 4070,
  "metric</w>": 4071,
  "trave": 4072,
  "ke</w>": 4073,
  "bre": 4074,
  "\u2248": 4075,
  "gr</w>": 4076,
  "mark": 4077,
  "ders</w>": 4078,
  "encing</w>": 4079,
  "leng": 4080,
  "servic": 4081,
  "mal": 4082,
  "labor": 4083,
  "ies</w>": 4084,
  "deci": 4085,
  "und</w>": 4086,
  "amen": 4087,
  "kee": 4088,
  "mar": 4089,
  "kno": 4090,
  "mul": 4091,
  "wards</w>": 4092,
  "reser": 4093,
  "evap": 4094,
  "block": 4095
}