e </w>
. </w>
t h
s </w>
d </w>
i n
th e</w>
o n
e r
t </w>
a n
a l
t i
e d</w>
f </w>
, </w>
e n
o r
r e
o f</w>
on </w>
g </w>
2 </w>
l </w>
1 </w>
i c
a r
in g</w>
0 </w>
y </w>
o </w>
l e</w>
ti on</w>
t e
3 </w>
or </w>
er </w>
i s</w>
m </w>
a s
u r
s h
al l</w>
a </w>
in </w>
b e</w>
a c
h </w>
a p
t o</w>
4 </w>
a t
sh all</w>
r o
an d</w>
) </w>
( </w>
s t</w>
a tion</w>
e c
d i
m e
v e
5 </w>
s t
h ic
s i
c on
f or</w>
e s</w>
ve hic
a g
6 </w>
/ </w>
l o
e x
al </w>
- </w>
u l
d e
te st</w>
c </w>
m p
m i
p ar
en t</w>
ap p
a t</w>
vehic le</w>
t er
a b
s p
8 </w>
i th
r i
q u
c o
c h
; </w>
th is</w>
c or
7 </w>
a s</w>
o l
w ith
lo w
t s</w>
ur e</w>
c e</w>
k m</w>
t r
ab le</w>
e l
an n
f i
on s</w>
an </w>
ex </w>
u n
u s
ann ex</w>
r ap
s si
l y</w>
l e
p </w>
9 </w>
v e</w>
par ag
parag rap
d ing</w>
with </w>
t ed</w>
s te
s u
p er
c al
p ro
l i
m o
mi ssi
paragrap h</w>
i </w>
: </w>
n o
a ti
as e</w>
en </w>
at ed</w>
re s
t er</w>
m a
e missi
v al
p o
x </w>
c le</w>
e ed</w>
ac cor
= </w>
c y
m e</w>
c l
f ic
m in
s e
ac t
o u
me as
c ul
t y
qu i
f u
m ent</w>
a d</w>
e l</w>
low </w>
w h
i f</w>
th at</w>
g e</w>
as s</w>
sp eed</w>
ch ar
b y</w>
f act
accor ding</w>
f or
cy cle</w>
en c
el ec
i d
c e
p e</w>
a i
v er
cal cul
en ts</w>
i g
at e</w>
s y
t y</w>
fu el</w>
c ri
k </w>
c o</w>
ic </w>
p h
sy ste
b </w>
b e
m b
s a
ty pe</w>
an ce</w>
en er
co mp
n </w>
val u
s s</w>
f er
en ce</w>
l es</w>
" </w>
app l
h a
appl ic
[ </w>
d e</w>
] </w>
r </w>
e v
no t</w>
m ass</w>
× </w>
ph ase</w>
t ing</w>
re c
u re
sp ec
syste m</w>
s e</w>
m an
in ter
o d</w>
de ter
ar e</w>
d o
emissi ons</w>
re qui
f ol
ti me</w>
applic able</w>
pro ce
vehic les</w>
d ed</w>
d ri
er e</w>
f ro
fro m</w>
app en
us ed</w>
di ti
di x</w>
deter min
appen dix</w>
w e
man u
me ter</w>
fol low
sa mp
g y</w>
elec tr
a d
t able</w>
p u
manu fact
m ents</w>
in e</w>
re g
p er</w>
l u
manufact ur
enc y</w>
e f
te st
ener gy</w>
f low</w>
me th
al y
u st</w>
f in
0 0</w>
en g
char ge</w>
er at
p res
fer ence</w>
ma y</w>
− </w>
proce d
spec i
c ase</w>
emissi on</w>
f a
u m</w>
res ul
mb er</w>
fic i
ex ha
exha ust</w>
meas ure
d ur
te mp
cor rec
p ol
electr ic</w>
ou t
ag e</w>
wh ere</w>
s ec
meas ur
a in
manufactur er</w>
n u
temp erat
con su
follow ing</w>
d u
1 0</w>
+ </w>
l t
n a
th an</w>
dri v
calcul ated</w>
e ar
mp tion</w>
d s</w>
d y
ste p</w>
lo ad</w>
i m
v id
e ac
consu mption</w>
proced ure</w>
de s
pu t</w>
ro ad</w>
ig h
des cri
w lt
con diti
temperat ure</w>
o v
c en
nu mber</w>
dy na
requi re
eac h</w>
e qu
ef fici
s ure</w>
w hic
c ur
d er
st an
ter i
do w
con t
d ec
j </w>
d at
par ti
st r
g as</w>
i b
fa mi
ati ve</w>
cen tr
m s</w>
inter pol
con si
n o</w>
b ed</w>
dur ing</w>
re ference</w>
o per
us e</w>
us ing</w>
an aly
measur ed</w>
an ge</w>
ati ons</w>
eng ine</w>
fi ed</w>
l ing</w>
po in
t an
sec on
m on
a f
for m
out put</w>
con centr
dat a</w>
meth od</w>
app ro
analy s
require ments</w>
as t</w>
cl u
u al</w>
ai r</w>
on e</w>
ai l
de p
t o
c ar
with in</w>
o th
w h</w>
whic h</w>
fami ly</w>
per i
measure ment</w>
valu e</w>
ib r
p p
interpol ation</w>
descri bed</w>
cal ibr
determin ed</w>
c tion</w>
li ed</w>
fi l
ul ation</w>
e qui
st ar
p e
ag ency</w>
concentr ation</w>
t e</w>
a ver
i t
d er</w>
valu es</w>
im um</w>
af ter</w>
o b
at ing</w>
di lu
consi der
c ent</w>
mo meter</w>
s ti
c h</w>
me di
st ance</w>
app lied</w>
r a
di vid
s elec
i t</w>
le ast</w>
reg ulation</w>
ear </w>
h ev
dep le
± </w>
resul ts</w>
2 0</w>
ti ve</w>
conditi ons</w>
on al</w>
l ed</w>
cri teri
be t
dyna mometer</w>
in clu
poin t</w>
co effici
bet we
betwe en</w>
° </w>
p re
re e
an s</w>
v i
fi g
r ange</w>
v </w>
re sp
resp on
deple ting</w>
an y</w>
w in
fi r
r ed</w>
ain ing</w>
f ul
in divid
s o
calcul ation</w>
consider ed</w>
1 00</w>
me ans</w>
r un
individ ual</w>
ar d</w>
k g</w>
aver age</w>
speci fic
p l
car b
fact or</w>
pres sure</w>
% </w>
we igh
de fin
i ty</w>
ol u
calibr ation</w>
fin al</w>
samp le</w>
ou t</w>
samp ling</w>
peri od</w>
char g
su st
sust aining</w>
a k
v ic
ro un
i li
as s
po w
v al</w>
per form
ou s</w>
w </w>
correc tion</w>
ov c</w>
ig h</w>
t al</w>
a te
h y
ro l</w>
th e
mo de</w>
t en
equ ation</w>
a v
e st</w>
secon d</w>
star t</w>
g ear</w>
g as
h igh</w>
el er
t w
m en
n e
c d</w>
ch ec
g n
v ed</w>
comp on
on ly</w>
wlt c</w>
ter s</w>
se t</w>
ree ss</w>
fig ure</w>
l ar
ob d</w>
s s
1 2</w>
wh en</w>
wlt p</w>
or s</w>
criteri a</w>
speci fied</w>
re qu
di f
a use</w>
defin ed</w>
a y</w>
analys er</w>
b le</w>
fic ation</w>
cl es</w>
carb on</w>
1 5</w>
eler ation</w>
h o
re a
v s</w>
tr ac
m ul
m or
tan k</w>
re cor
test s</w>
c u
ma x
0 0
max imum</w>
se qu
av ail
i s
as ed</w>
u p
fir st</w>
cl ass</w>
stan d
in d
tr an
mor e</w>
appro val</w>
o p
d ro
pl ac
en s
v olu
r e</w>
p ur
par a
h s</w>
r ate</w>
dilu tion</w>
oper ation</w>
≤ </w>
ver i
specific </w>
requi red</w>
t u
di stance</w>
n ec
avail able</w>
paragrap hs</w>
m co</w>
n ing</w>
p or
hev s</w>
l in
oth er</w>
to tal</w>
for e</w>
2 3</w>
5 0</w>
parti cle</w>
le ss</w>
e ous</w>
po si
2 5</w>
perform ed</w>
̅ </w>
vic e</w>
c s</w>
ro u
ar y</w>
ov er</w>
cl ause</w>
tw o</w>
mon it
hy dro
ac c
ha ve</w>
t ted</w>
f un
p ri
en t
y es</w>
si on</w>
medi um</w>
du c
al ly</w>
resul t</w>
er s</w>
re s</w>
3 0</w>
test ing</w>
si gn
str u
du ction</w>
pe ms</w>
correc ted</w>
4 0</w>
t ri
cont rol</w>
su ch</w>
driv en</w>
volu me</w>
su b
respon se</w>
selec ted</w>
test ed</w>
driv ing</w>
c al</w>
be fore</w>
r ati
an e</w>
coeffici ent</w>
h igh
comp le
ab ili
un der</w>
1 4</w>
ter n
c an</w>
w ay</w>
a in</w>
1 3</w>
ac h
en d</w>
u p</w>
s o</w>
ch ass
chass is</w>
con for
… </w>
b ased</w>
h e
2 1</w>
pp m</w>
en ti
determin ation</w>
f ch
ad diti
n m
t or
co m
sa me</w>
accor d
me ters</w>
ure s</w>
run </w>
ma in
1 1</w>
a er
accord ance</w>
ti c</w>
dow n</w>
at er</w>
i ts</w>
weigh ted</w>
t ak
stand ard</w>
re l
le ve
ac ti
h as</w>
li mi
s ens
∆ </w>
e t</w>
z er
pro vid
ti ons</w>
i st
pow er</w>
conditi on
additi onal</w>
rou g
c at
b u
cat aly
dec lar
ac cur
an t</w>
c re
recor ded</w>
– </w>
di tion</w>
th roug
c ap
lo c
ab o
abo ve</w>
ro l
rati o</w>
win dow
ic al</w>
parti cul
m at
tri p</w>
re spec
th re
no v
acc eleration</w>
in g
ur b
confor mi
conformi ty</w>
dyna m
re si
in stru
zer o</w>
roun ded</w>
s er
i d</w>
ec ted</w>
win d</w>
ag e
p ment</w>
fu el
f f</w>
h c</w>
ain ed</w>
w i
ma x</w>
nov c</w>
p a</w>
co as
2 2</w>
as es</w>
le t</w>
syste ms</w>
j u
se t
fch vs</w>
al tern
requ est</w>
∑ </w>
equi pment</w>
b o
par t</w>
fil ter</w>
sh o
coeffici ents</w>
char ac
driv er</w>
coas t
declar ed</w>
di s
urb an</w>
acti v
4 2</w>
re por
g en</w>
condition ing</w>
w ar
cy cles</w>
chec k
co mb
equi val
age ing</w>
m ed</w>
ar ith
i i</w>
the se</w>
cataly st</w>
ac y</w>
dynam ic</w>
charac teri
throug h</w>
accur acy</w>
leve l</w>
oper ating</w>
4 3</w>
dow n
arith me
enc h</w>
or der</w>
an g
effici ency</w>
f ec
a re
ind ic
arithme tic</w>
4 5</w>
tran s
wh e
6 0</w>
coast down</w>
min imum</w>
secon ds</w>
res er
reg ener
compon ents</w>
equ al</w>
4 8</w>
reser ved</w>
ev ap
g i
n or
fun ction</w>
para meters</w>
evap or
ul d</w>
min u
con nec
m al
re ag
resi stance</w>
a mb
4 4</w>
s ed</w>
e t
particul ate</w>
pur po
ad ju
adju st
i tion</w>
o t</w>
enc lo
1 8</w>
o c
aer o
inclu ding</w>
in st
ig n
2 6</w>
reag ent</w>
ch ange</w>
d es</w>
abili ty</w>
g ra
ex ce
re pres
c an
can ist
mi </w>
ar </w>
evapor ative</w>
n g</w>
1 7</w>
o x
3 3</w>
3 5</w>
low er</w>
sh i
meth ane</w>
stan t</w>
compon ent</w>
g re
measure ments</w>
inst al
fa ul
form ation</w>
2 9</w>
amb i
ambi ent</w>
3 6</w>
mi tted</w>
oc cur
g ener
i ti
comp o
id enti
ur </w>
' s</w>
f t</w>
y ing</w>
con stant</w>
no x</w>
dilu ted</w>
d ra
o se</w>
k pa</w>
d en
tu de</w>
de mon
demon str
m g</w>
characteri sti
set ting</w>
b ench</w>
val id
chec k</w>
di rec
de vice</w>
dif fer
2 4</w>
ful fil
posi tive</w>
3 2</w>
f r
equival ent</w>
’ </w>
ith er</w>
t ained</w>
con ver
canist er</w>
pro duction</w>
pre conditioning</w>
n on</w>
f l
l er</w>
p n</w>
al ti
alti tude</w>
sens or</w>
r de</w>
se e</w>
o ds</w>
8 0</w>
1 6</w>
o ff</w>
pow er
con dition</w>
a k</w>
enclo sure</w>
or y</w>
el l</w>
1 9</w>
ur al</w>
un ti
unti l</w>
t ol
4 1</w>
d c</w>
u </w>
4 7</w>
ssi ble</w>
3 4</w>
nor m
ate ly</w>
be low</w>
tol er
w as</w>
co un
sequ ence</w>
a x
oth </w>
e ither</w>
c eed</w>
poin ts</w>
t un
st or
th er</w>
dri ve</w>
in d</w>
comple te</w>
measur ing</w>
n el</w>
ve ly</w>
monit or
gas eous</w>
ti onal</w>
be en</w>
re fer
dif ference</w>
ex ceed</w>
re ssi
4 6</w>
3 9</w>
5 2</w>
cur ve</w>
me tr
plac ed</w>
tak en</w>
aero dynamic</w>
l ine</w>
5 6</w>
tun nel</w>
mo tor
motor way</w>
in formation</w>
pp ed</w>
in to</w>
re com
bu t</w>
proce ss</w>
3 1</w>
st rea
e e
0 00</w>
r ural</w>
sp an</w>
faul t</w>
< </w>
3 8</w>
recom men
p n
2 7</w>
at or</w>
in cre
gener al</w>
u ti
gas es</w>
in iti
al so</w>
with out</w>
po ssible</w>
ph ases</w>
5 3</w>
9 5</w>
app </w>
co p</w>
act ual</w>
ful l</w>
f c
r r
l l</w>
2 8</w>
b oth</w>
high er</w>
ty re</w>
cu mul
t ro
e valu
thre e</w>
eng in
charg ed</w>
parti cles</w>
gre ater</w>
cor respon
con duc
uti li
app ly</w>
appro pri
ressi on</w>
z </w>
window s</w>
ex ten
5 4</w>
car ri
si tion</w>
compo un
n al</w>
ti fication</w>
hydro carbon</w>
criteri on</w>
a mp
trac e</w>
4 9</w>
w or
v ing</w>
p ev
ar i
co l
run ning</w>
re ach
so ur
ign ition</w>
th </w>
te s</w>
a u
equi pped</w>
di ag
ch ang
carri ed</w>
te ch
5 1</w>
li es</w>
p i
appropri ate</w>
c es</w>
repres ent
strea m</w>
altern ative</w>
veri fication</w>
e ss
tan eous</w>
f ail
t ail
s cal
9 0</w>
represent ative</w>
v max</w>
regener ation</w>
mul ti
is c</w>
si ve</w>
b al
ef fec
qu e</w>
in stan
instan taneous</w>
f lu
analys ers</w>
st ati
para meter</w>
provid ed</w>
in let</w>
wh o
who le</w>
charg e
charg ing</w>
utili ty</w>
diag no
ap </w>
de te
th ose</w>
w d</w>
' </w>
v en</w>
w n</w>
ec u</w>
ind ex</w>
a ve</w>
i sion</w>
1 0
p t</w>
w it
m in</w>
th en</w>
6 2</w>
applic ation</w>
fact ors</w>
ac k
instru ment</w>
for ce</w>
fr on
7 3</w>
nec ess
high est</w>
5 5</w>
ser vice</w>
bo ard</w>
al s</w>
tech n
3 7</w>
c vs</w>
de vi
gi ven</w>
p tion</w>
≥ </w>
ty p
cur r
mo des</w>
5 8</w>
6 3</w>
pri or</w>
norm al</w>
th ere</w>
> </w>
6 1</w>
p ure</w>
g r
pro p
co ol
lin ear
differ ent</w>
sour ce</w>
do es</w>
activ ated</w>
7 0</w>
im al</w>
fulfil led</w>
ag ed</w>
follow s</w>
sub sequ
mo di
cont in
contin u
t or</w>
pu mp
comb in
ac ce
ti on
sh or
necess ary</w>
toler ance</w>
ob tained</w>
me an</w>
f requ
calibr ated</w>
pe t
pet rol</w>
diagno sti
i r
f e
instal led</w>
reach ed</w>
purpo se</w>
dec imal</w>
con sec
dec eleration</w>
proced ures</w>
t re
c er
curr ent</w>
v ari
d r
pn c</w>
re mo
mi x
in put</w>
s wit
ing s</w>
val id</w>
correspon ding</w>
di a
recommen ded</w>
so ak</w>
c ate
cate g
determin e</w>
shi ft</w>
trans missi
i o
valid ation</w>
ar g
analys is</w>
tor que</w>
c ann
g er</w>
frequ ency</w>
n m</w>
n ve
nve h</w>
selec tion</w>
initi al</w>
pol lu
vic es</w>
g roun
cann ot</w>
o ur</w>
consec u
consecu tive</w>
rel ated</w>
g h
specific ations</w>
o ver
si ons</w>
limi t</w>
groun d</w>
ty res</w>
wi ll</w>
tran sition</w>
ur s</w>
mal function</w>
g a
1 20</w>
minu tes</w>
z e</w>
ec dc</w>
inclu sive</w>
exten ded</w>
ab s
pro vi
7 5</w>
pump </w>
bal ance</w>
s es</w>
engin es</w>
rea ding</w>
f ac
ve loc
l ast</w>
whic hev
whichev er</w>
check ed</w>
s mo
refer red</w>
b es</w>
ac </w>
dete c
s ing
t arg
targ et</w>
dra g</w>
veloc ity</w>
t ly</w>
evalu ation</w>
co de</w>
b el
sho uld</w>
ho urs</w>
characteristi cs</w>
ic ally</w>
in tro
i es</w>
per missi
a y
nm hc</w>
sing le</w>
se par
mo un
ex p
fi tted</w>
a er</w>
re le
conduc ted</w>
up on</w>
enc es</w>
me et</w>
den o
# </w>
fuel s</w>
v ol
fun c
de vices</w>
permissi ble</w>
fi d</w>
rr c</w>
rol ling</w>
re pe
are a</w>
no tification</w>
provid e</w>
dia meter</w>
id e</w>
typ es</w>
l p
ic e</w>
a mber</w>
8 9</w>
power ed</w>
im medi
immedi ately</w>
wi se</w>
ste p
gh t</w>
lp g</w>
ti cal</w>
nm c</w>
consi st
st o
transmissi on</w>
swit ch
ga z
gaz et
gazet te</w>
on g</w>
in te
deno min
mat ri
matri x</w>
multi p
h z</w>
do cu
monitor ing</w>
fi le</w>
k e</w>
window </w>
be ing</w>
cap ac
p re</w>
pi pe</w>
min al</w>
concentr ations</w>
exp ected</w>
plac e</w>
con fig
config ur
ai r
n n
lo a
linear ity</w>
b io
re placed</w>
w ater</w>
carb ons</w>
no minal</w>
ch amber</w>
tr ain</w>
m and</w>
ear s</w>
metr ic</w>
inclu de</w>
respec tive</w>
ec ac</w>
p ass
a es</w>
perform ance</w>
calcul ations</w>
capac ity</w>
b ack
hydro carbons</w>
in flu
thre sh
thresh ol
ent ly</w>
al low
f e</w>
ma de</w>
ch o
st abili
ne are
neare st</w>
re charged</w>
b ri
selec table</w>
veri f
th er
hev </w>
e ment</w>
i r</w>
veri fied</w>
be g
me s</w>
descri ption</w>
deter i
deteri or
op tion</w>
5 7</w>
1 21</w>
equ ations</w>
out let</w>
ox y
oxy gen</w>
t age</w>
c r
di ty</w>
et c</w>
back ground</w>
on ic</w>
the ir</w>
el s</w>
per mitted</w>
f fici
monit or</w>
rele v
relev ant</w>
ver y</w>
2 00</w>
u f
ha ving</w>
dur ability</w>
cumul ative</w>
meth ods</w>
m c</w>
rol ler</w>
de mand</w>
limi ts</w>
su ffici
ex amp
gas ol
gasol ine</w>
6 5</w>
i z
er 's</w>
comp li
pev s</w>
e se
techn ical</w>
comb us
combus tion</w>
se al
th c</w>
adjust ment</w>
pro be</w>
s ur
w ell</w>
op tional</w>
oper ated</w>
o s</w>
stati sti
i mp
ee ds</w>
6 4</w>
7 1</w>
7 9</w>
8 1</w>
mo der
moder ate</w>
bio methane</w>
hy bri
i ii</w>
i v</w>
ati onal</w>
un it</w>
comp ar
su pp
con fir
main s</w>
sign al</w>
sp eeds</w>
war ning</w>
a res</w>
sens ors</w>
gn ss</w>
exce e
tre at
treat ment</w>
as se
diagnosti c</w>
col l
f ur
beg in
b rea
dur ation</w>
cap </w>
ful fi
fulfi l</w>
deterior ation</w>
en sure</w>
roun ding</w>
 </w>
peri ods</w>
* </w>
in du
categ ory</w>
fuel led</w>
k i
for m</w>
inclu ded</w>
sign ed</w>
seal ed</w>
brea k</w>
se a</w>
tak e</w>
re str
in al</w>
pollu tan
require ment</w>
statisti cal</w>
compoun d</w>
repor t</w>
t ation</w>
manufactur er's</w>
hybri d</w>
c ell</w>
di ese
diese l</w>
sign als</w>
c lo
ili ty</w>
inter nal</w>
respec t</w>
whe els</w>
fur ther</w>
connec ted</w>
o us
calcul ating</w>
p ass</w>
par ts</w>
l ation</w>
posi tion</w>
e very</w>
reg ression</w>
lin ear</w>
5 9</w>
6 6</w>
7 6</w>
fol low</w>
so ak
ki lo
e st
a f</w>
di sp
main ten
mainten ance</w>
ve s</w>
dep en
h er
direc tly</w>
i al</w>
fail ure</w>
war m</w>
suffici ent</w>
mo de
l s</w>
fami lies</w>
demonstr ate</w>
d j</w>
shor ten
shorten ed</w>
6 7</w>
9 7</w>
stor age</w>
provi sions</w>
ad dition</w>
j ec
purpo ses</w>
m ati
at mo
atmo sp
dr y</w>
si ty</w>
pro duc
begin ning</w>
ach i
ous ly</w>
p r
u s</w>
9 9</w>
correc t</w>
temperat ures</w>
6 8</w>
7 4</w>
loa ding</w>
ne w</w>
re ad
o l</w>
he ated</w>
di </w>
si de</w>
ax le</w>
co ver
b ec
denomin ator</w>
occur s</w>
s qu
subsequ ent</w>
p air
∗ </w>
pp mc</w>
t ure</w>
scal e</w>
tail pipe</w>
p rec
acce p
he at</w>
v i</w>
ti vely</w>
indu ce
induce ment</w>
f low
si ze</w>
d one</w>
e mp
fron t</w>
0 2</w>
pair s</w>
characteristi c</w>
i l
compli ance</w>
ate s</w>
sh ed</w>
influ ence</w>
ro t
p air</w>
repe ated</w>
devi ation</w>
switch ed</w>
altern ati
s ati
sati s
electr ical</w>
lo ss</w>
oth er
other wise</w>
examp le</w>
app ed</w>
identi cal</w>
step s</w>
samp les</w>
abs olu
absolu te</w>
00 1
hydro gen</w>
verif ying</w>
trac e
dec ision</w>
gra m</w>
k ing</w>
e th
si mul
al ity</w>
pres cri
occur </w>
appro ved</w>
measure s</w>
9 4</w>
7 2</w>
smo oth
lar ger</w>
? </w>
00 0
st ate</w>
vol tage</w>
intro duction</w>
r c
rel ative</w>
den sity</w>
star ts</w>
conver ter</w>
power train</w>
g ears</w>
v ap
is ation</w>
d ary</w>
ful ly</w>
or ig
h u
t ain</w>
on ce</w>
ad ded</w>
7 8</w>
sho wn</w>
weigh ing</w>
inter medi
intermedi ate</w>
ag ing</w>
2 0
id le</w>
tu be</w>
tr a
mat er
g n</w>
alternati vely</w>
8 5</w>
di ur
ar o
un less</w>
mode l</w>
incre men
coun t</w>
hu mi
nm in</w>
multip le</w>
dec </w>
asse ss
repor ting</w>
pre par
compoun ds</w>
ox ide</w>
prec ision</w>
whe ther</w>
whe el</w>
b as
charge depleting</w>
star ting</w>
m ing</w>
lin es</w>
ho ur</w>
diur nal</w>
allow ed</w>
orig inal</w>
ro ss</w>
humi dity</w>
cover ed</w>
inte gr
n ed</w>
ai l</w>
te ly</w>
7 7</w>
instal lation</w>
recor ding</w>
fc cd</w>
ef m</w>
b c</w>
b ility</w>
detec tor</w>
p r</w>
ne g
an e
stor ed</w>
ex clu
2 73</w>
vap our</w>
monitor ed</w>
w o
wo uld</w>
repor ted</w>
c i
c ases</w>
c m</w>
minu te</w>
activ ation</w>
ti mes</w>
se ver
5 89</w>
bel t</w>
inter ference</w>
b re
men tation</w>
peri o
perio d
en ted</w>
stand ar
l ab
st ed</w>
comp u
p m</w>
prop ane</w>
a m
atmosp her
appro x
tra ve
h an
de signed</w>
prescri bed</w>
secon dary</w>
me t</w>
c apped</w>
cumul ated</w>
re medi
ree s
rees ss</w>
po st</w>
9 3</w>
adjust ed</w>
b a
ba g</w>
ec wltc</w>
per wltc</w>
interpol ated</w>
ho t</w>
soak ing</w>
m ulation</w>
trace able</w>
aver aging</w>
el ev
de tail
ev er</w>
v ent
vent ur
coll ected</w>
n it
limi ted</w>
ex tern
descri bes</w>
s ing</w>
fron tal</w>
atmospher ic</w>
p lu
combin ation</w>
ac t</w>
separ ate</w>
ab ly</w>
pu ff</w>
cool ant</w>
erat or</w>
e ts</w>
leve ls</w>
i se</w>
ev id
evid ence</w>
respec tively</w>
li sted</w>
resul ting</w>
f ail</w>
remedi al</w>
er ee
eree ss</w>
demonstr ated</w>
t ur
l ap</w>
dri ft</w>
up stream</w>
dis cre
au to
h ar
str ate
pro file</w>
k e
mat ter</w>
ventur i</w>
re duction</w>
ol s</w>
ib le</w>
extern al</w>
effec t</w>
direc tion</w>
de si
func tion
clu t
l led</w>
pev </w>
trac tion</w>
shi f
pre do
predo min
pres sur
n eed</w>
monit ors</w>
com m
nu m
pre v
col d</w>
av o
ag ain
again st</w>
pollutan t</w>
wor st</w>
fil ters</w>
indic ated</w>
modi fied</w>
min i
appl ying</w>
cap able</w>
6 9</w>
′ </w>
fl at</w>
calcul ate</w>
to l</w>
re e</w>
elev ation</w>
ay s</w>
v pr</w>
v er</w>
nit ro
nitro gen</w>
a moun
threshol ds</w>
re as
predomin ant</w>
f y</w>
mi s
comp ression</w>
d am
exce pt</w>
j ected</w>
mon th
k i</w>
follow ed</w>
down scal
er r
se ts</w>
sto p</w>
sever al</w>
re ar</w>
reg i
meas ure</w>
down stream</w>
discre te</w>
so f
sof tw
softw are</w>
i fic
g rap
mix ture</w>
vehic le
vehicle 's</w>
ti fied</w>
n ex
nex t</w>
su res</w>
g ed</w>
w s</w>
cont ent</w>
consider ation</w>
ro w</w>
s lo
k s</w>
inter i
8 8</w>
9 6</w>
approx i
approxi ma
approxima tely</w>
se g
al ign
instru ments</w>
run s</w>
assess ment</w>
est ab
estab li
10 1</w>
b ase</w>
c f
fch v</w>
disp l
f er</w>
du e</w>
reg ar
ss es</w>
pol y
bas is</w>
desi gn</w>
prop ul
propul sion</w>
auto mati
trave lled</w>
s ol
de pressur
c le
er ing</w>
val s</w>
m ar
li fe</w>
pur ge</w>
sequ ences</w>
stabili z
comple ted</w>
fil l</w>
subsequ ently</w>
l eng
co lu
colu m
h m</w>
f c</w>
m j</w>
cr u
charge sustaining</w>
chang es</w>
a is</w>
at ory</w>
wh i
whi le</w>
su m</w>
amoun t</w>
re pair</w>
fac e</w>
the y</w>
loc ation</w>
configur ation</w>
depressur isation</w>
k el
si mi
simi lar
similar </w>
mis fir
dam age</w>
b aro
baro metric</w>
de fault</w>
j us
set t
is o</w>
olu tion</w>
an ces</w>
f our</w>
squ ares</w>
slo pe</w>
e sti
m ation</w>
remo val</w>
leng th</w>
ab les</w>
bo d
bod y</w>
fi x
cool ing</w>
f an</w>
eac </w>
e aer
period ically</w>
regener ating</w>
g ain</w>
i up
in ten
ag ree
agree ment</w>
iz ation</w>
ma in</w>
w ere</w>
ther e
as si
ch e
d a</w>
combin ed</w>
n ational</w>
chang ed</w>
consist s</w>
ri se</w>
clut ch</w>
m ec
mec han
“ </w>
3 00</w>
misfir e</w>
ex pres
p en
st at
stat us</w>
at ter
sett ings</w>
fic ations</w>
nn nn
ass es</w>
rel ation</w>
toler ances</w>
der i
check s</w>
v cap</w>
w ot</w>
down shift</w>
weigh t</w>
| </w>
l on
colum n</w>
ax is</w>
mini mi
vari able</w>
r ang
confir mation</w>
b in</w>
cl d</w>
check ing</w>
d ate</w>
m ap</w>
ss v</w>
af fec
loc ated</w>
lo sses</w>
t res</w>
” </w>
ter m</w>
op en</w>
restr ic
plac es</w>
month s</w>
res olution</w>
pr in
ci p
jec tion</w>
at ure</w>
star ted</w>
10 22</w>
achi e
p wot</w>
expres sed</w>
shif ts</w>
o m</w>
un its</w>
o i
1 32</w>
an k
pre vi
9 8</w>
cri tical</w>
cont rol
depen d
for ces</w>
con stru
ax les</w>
in er
iner ti
id ling</w>
rati os</w>
ac tion</w>
compu ter</w>
c ause</w>
pro por
threshol d</w>
pl an</w>
comp ly</w>
manufactur ers</w>
k co</w>
m m</w>
prin cip
trac k</w>
qu ality</w>
mi le
mile age</w>
4 00</w>
low est</w>
ad d</w>
in ste
inste ad</w>
de lt
delt a</w>
fix ed</w>
lab or
ro om</w>
norm ally</w>
grap hic
ec p</w>
cru ise</w>
ap os</w>
excee ding</w>
f ree</w>
tr </w>
wor king</w>
is ed</w>
du ce</w>
ho w
how ever</w>
eth an
qu an
cl assi
refer s</w>
de l
defin ition</w>
b i</w>
mater ial</w>
bre ak
ev ents</w>
s en</w>
l ong</w>
incre ase</w>
s in
sin ce</w>
c ir
en able</w>
fu l</w>
ss ing</w>
r on
tion ed</w>
0 1</w>
b ra
continu ously</w>
esti m
consi st</w>
8 2</w>
achie ve</w>
interi m</w>
n add</w>
clo sed</w>
labor atory</w>
uf m</w>
pass ed</w>
tur ned</w>
an c
enti al</w>
au x
docu mentation</w>
manu al</w>
s bc</w>
ex change</w>
fail ed</w>
detail ed</w>
reg ul
g o
docu ment</w>
identi fication</w>
li qui
c a
d o</w>
mix ing</w>
continu ous</w>
plu s</w>
ser ies</w>
main tained</w>
b l
an other</w>
re li
per cen
cont ain</w>
ac tive</w>
throug h
through out</w>
at ors</w>
mar k
integr ated</w>
modi fications</w>
r ing</w>
downscal ing</w>
sy n
engin e
confor m</w>
th ir
c tions</w>
n g
ng vmax</w>
v j</w>
id s</w>
enc ies</w>
particul ar</w>
condition ed</w>
oi l</w>
ex chang
read ings</w>
conver sion</w>
m ol
mol ar</w>
inter val</w>
con cer
cer ti
speci al</w>
diagnosti cs</w>
re al</w>
d ated</w>
su b</w>
respon si
recommen d
tan e</w>
ethan ol</w>
c f</w>
sti tu
ma j
maj or</w>
affec t</w>
de gre
r ated</w>
dri ve
metr y</w>
igh t</w>
divid ed</w>
inerti a</w>
compar ed</w>
rc dc</w>
aux ili
auxili ary</w>
3 25</w>
gra ms</w>
de fici
identi fied</w>
bec o
ac count</w>
enti re</w>
us e
use ful</w>
avo id</w>
en ds</w>
& </w>
in jection</w>
deri ved</w>
r an
y ear
year ly</w>
indic es</w>
ain t</w>
ec </w>
0 5</w>
thir d</w>
sign ific
aver aged</w>
determin ing</w>
instru ctions</w>
inter vals</w>
t start</w>
cho sen</w>
separ ately</w>
g it
prepar ation</w>
ens ation</w>
neg ative</w>
comple tion</w>
err or</w>
exchang er</w>
ti </w>
pass ing</w>
mo bility</w>
in take</w>
gra de</w>
smooth ing</w>
d w
li ght</w>
r m</w>
establi sh
reg ard</w>
pri m
id ed</w>
app lies</w>
categ or
liqui d</w>
d p</w>
p f</w>
mon oxide</w>
d ou
m ann
mann er</w>
del ay</w>
w ard</w>
simul ated</w>
cal ly</w>
m ach
fl ex</w>
configur able</w>
al low</w>
fuel ling</w>
electr onic</w>
intro duc
cont ained</w>
he ating</w>
cir cu
t en</w>
de e
dee med</w>
pro te
incre ased</w>
ke pt</w>
accep table</w>
un der
sp li
out side</w>
princip le</w>
st ated</w>
multip lied</w>
exclu ded</w>
1 50</w>
de activated</w>
valid ated</w>
o f
m r</w>
down shifts</w>
effec tive</w>
si mulation</w>
ra di
l m</w>
align ment</w>
cor r</w>
produc t</w>
cor relation</w>
rang es</w>
b ag
bag s</w>
in valid</w>
deple tion</w>
p m
dra in</w>
o do
certi fic
certific ate</w>
cr ank
crank case</w>
iup rm</w>
un i
8 3</w>
pollu tion</w>
ro ad
s el
coun ter</w>
ne ss</w>
dou ble</w>
control led</w>
loc k
fil led</w>
ne e
achi ev
mechan ical</w>
e aer</w>
ter ed</w>
n e</w>
k w</w>
ev ent</w>
val ve</w>
detec ted</w>
shor t</w>
connec tion</w>
standar ds</w>
to ol</w>
go od</w>
cont ain
re main</w>
bel ong</w>
spli t</w>
h ere</w>
effec ts</w>
d ic
char t</w>
sec tion</w>
h ol
√ </w>
4 38</w>
ju d
fi t</w>
emp ty</w>
r up
eng aged</w>
restr aint</w>
samp led</w>
y ear</w>
equival ency</w>
connec ting</w>
in t</w>
step wise</w>
kilo meter</w>
eaer p</w>
incremen ted</w>
sh ares</w>
1 23</w>
iz ed</w>
defin i
defini tions</w>
strate gy</w>
p ack
pack age</w>
ic s</w>
a men
ve lo
inclu des</w>
1 1
per me
fi er</w>
co uld</w>
ane mometer</w>
enc ed</w>
ane mo
anemo metry</w>
he ight</w>
per man
nee ded</w>
ne u
neu tr
e ss</w>
u t</w>
e mitted</w>
require s</w>
over flow</w>
break through</w>
co des</w>
il lu
indic ator</w>
cy lin
differ ences</w>
ad ap
y ears</w>
supp ly</w>
sti ll</w>
demonstr ation</w>
un d</w>
function ing</w>
stan ces</w>
o mitted</w>
per form</w>
8 6</w>
le ak
consist ing</w>
inter rup
recor d</w>
d ays</w>
re main
ten d</w>
acc el
accel erator</w>
k no
t on
c ross</w>
analys ed</w>
smooth ed</w>
propor tional</w>
ther m
d ay</w>
ste ad
stead y</w>
b y
uf phase</w>
fc weighted</w>
per low</w>
per med</w>
per high</w>
c i</w>
graphic </w>
qu ench</w>
h corr</w>
na me</w>
5 00</w>
li st</w>
ann ex
val i
vali dity</w>
un </w>
de velo
previ ous</w>
l a
categor ies</w>