{
  "<pad>": 0,
  "<unk>": 1,
  "<bos>": 2,
  "<eos>": 3,
  ".</w>": 4,
  "the</w>": 5,
  ",</w>": 6,
  "of</w>": 7,
  "2</w>": 8,
  "1</w>": 9,
  "3</w>": 10,
  "be</w>": 11,
  "shall</w>": 12,
  "0</w>": 13,
  "to</w>": 14,
  ")</w>": 15,
  "(</w>": 16,
  "and</w>": 17,
  "in</w>": 18,
  "a</w>": 19,
  "4</w>": 20,
  "for</w>": 21,
  "/</w>": 22,
  "is</w>": 23,
  "-</w>": 24,
  "test</w>": 25,
  "5</w>": 26,
  "vehicle</w>": 27,
  "6</w>": 28,
  ";</w>": 29,
  "this</w>": 30,
  "km</w>": 31,
  "annex</w>": 32,
  "8</w>": 33,
  "or</w>": 34,
  "with</w>": 35,
  "7</w>": 36,
  "paragraph</w>": 37,
  ":</w>": 38,
  "as</w>": 39,
  "at</w>": 40,
  "=</w>": 41,
  "c</w>": 42,
  "h</w>": 43,
  "i</w>": 44,
  "if</w>": 45,
  "that</w>": 46,
  "speed</w>": 47,
  "by</w>": 48,
  "according</w>": 49,
  "on</w>": 50,
  "cycle</w>": 51,
  "s</w>": 52,
  "9</w>": 53,
  "fuel</w>": 54,
  "type</w>": 55,
  "b</w>": 56,
  "\"</w>": 57,
  "[</w>": 58,
  "]</w>": 59,
  "not</w>": 60,
  "mass</w>": 61,
  "\u00d7</w>": 62,
  "m</w>": 63,
  "system</w>": 64,
  "g</w>": 65,
  "phase</w>": 66,
  "an</w>": 67,
  "emissions</w>": 68,
  "time</w>": 69,
  "applicable</w>": 70,
  "vehicles</w>": 71,
  "are</w>": 72,
  "from</w>": 73,
  "used</w>": 74,
  "appendix</w>": 75,
  "co</w>": 76,
  "per</w>": 77,
  "energy</w>": 78,
  "e</w>": 79,
  "charge</w>": 80,
  "flow</w>": 81,
  "may</w>": 82,
  "\u2212</w>": 83,
  "emission</w>": 84,
  "exhaust</w>": 85,
  "all</w>": 86,
  "table</w>": 87,
  "case</w>": 88,
  "electric</w>": 89,
  "where</w>": 90,
  "manufacturer</w>": 91,
  "following</w>": 92,
  "10</w>": 93,
  "+</w>": 94,
  "than</w>": 95,
  "l</w>": 96,
  "calculated</w>": 97,
  "step</w>": 98,
  "load</w>": 99,
  "consumption</w>": 100,
  "procedure</w>": 101,
  "road</w>": 102,
  "ed</w>": 103,
  "temperature</w>": 104,
  "number</w>": 105,
  "re": 106,
  "t</w>": 107,
  "each</w>": 108,
  "gas</w>": 109,
  "no</w>": 110,
  "during</w>": 111,
  "reference</w>": 112,
  "using</w>": 113,
  "measured</w>": 114,
  "engine</w>": 115,
  "output</w>": 116,
  "data</w>": 117,
  "method</w>": 118,
  "requirements</w>": 119,
  "n</w>": 120,
  "within</w>": 121,
  "wh</w>": 122,
  "which</w>": 123,
  "family</w>": 124,
  "measurement</w>": 125,
  "value</w>": 126,
  "ing</w>": 127,
  "d</w>": 128,
  "interpolation</w>": 129,
  "described</w>": 130,
  "determined</w>": 131,
  "p</w>": 132,
  "t": 133,
  "k</w>": 134,
  "air</w>": 135,
  "one</w>": 136,
  "agency</w>": 137,
  "concentration</w>": 138,
  "g": 139,
  "s": 140,
  "values</w>": 141,
  "after</w>": 142,
  "j</w>": 143,
  "es</w>": 144,
  "cent</w>": 145,
  "applied</w>": 146,
  "least</w>": 147,
  "regulation</w>": 148,
  "1": 149,
  "\u00b1</w>": 150,
  "results</w>": 151,
  "conditions</w>": 152,
  "dynamometer</w>": 153,
  "point</w>": 154,
  "between</w>": 155,
  "\u00b0</w>": 156,
  "f</w>": 157,
  "i": 158,
  "c": 159,
  "range</w>": 160,
  "any</w>": 161,
  "calculation</w>": 162,
  "considered</w>": 163,
  "100</w>": 164,
  "means</w>": 165,
  "individual</w>": 166,
  "kg</w>": 167,
  "average</w>": 168,
  "factor</w>": 169,
  "pressure</w>": 170,
  "%</w>": 171,
  "calibration</w>": 172,
  "final</w>": 173,
  "sample</w>": 174,
  "it</w>": 175,
  "sampling</w>": 176,
  "period</w>": 177,
  "low</w>": 178,
  "e": 179,
  "n": 180,
  "depleting</w>": 181,
  "p": 182,
  "correction</w>": 183,
  "ovc</w>": 184,
  "</w>": 185,
  "mode</w>": 186,
  "equation</w>": 187,
  "20</w>": 188,
  "ation</w>": 189,
  "d": 190,
  "b": 191,
  "second</w>": 192,
  "gear</w>": 193,
  "sustaining</w>": 194,
  "v": 195,
  "only</w>": 196,
  "m": 197,
  "set</w>": 198,
  "reess</w>": 199,
  "figure</w>": 200,
  "obd</w>": 201,
  "12</w>": 202,
  "when</w>": 203,
  "wltp</w>": 204,
  "criteria</w>": 205,
  "high</w>": 206,
  "specified</w>": 207,
  "start</w>": 208,
  "defined</w>": 209,
  "x</w>": 210,
  "analyser</w>": 211,
  "l": 212,
  "in": 213,
  "r</w>": 214,
  "15</w>": 215,
  "tank</w>": 216,
  "tests</w>": 217,
  "maximum</w>": 218,
  "f": 219,
  "first</w>": 220,
  "class</w>": 221,
  "en": 222,
  "more</w>": 223,
  "approval</w>": 224,
  "r": 225,
  "rate</w>": 226,
  "dilution</w>": 227,
  "operation</w>": 228,
  "cd</w>": 229,
  "\u2264</w>": 230,
  "specific</w>": 231,
  "required</w>": 232,
  "distance</w>": 233,
  "available</w>": 234,
  "paragraphs</w>": 235,
  "mco</w>": 236,
  "hevs</w>": 237,
  "use</w>": 238,
  "total</w>": 239,
  "ate</w>": 240,
  "particle</w>": 241,
  "performed</w>": 242,
  "\u0305</w>": 243,
  "v</w>": 244,
  "over</w>": 245,
  "clause</w>": 246,
  "o": 247,
  "two</w>": 248,
  "y</w>": 249,
  "as": 250,
  "ted</w>": 251,
  "have</w>": 252,
  "yes</w>": 253,
  "medium</w>": 254,
  "result</w>": 255,
  "30</w>": 256,
  "testing</w>": 257,
  "ting</w>": 258,
  "h": 259,
  "pems</w>": 260,
  "corrected</w>": 261,
  "40</w>": 262,
  "control</w>": 263,
  "such</w>": 264,
  "driven</w>": 265,
  "volume</w>": 266,
  "response</w>": 267,
  "selected</w>": 268,
  "tested</w>": 269,
  "driving</w>": 270,
  "before</w>": 271,
  "coefficient</w>": 272,
  "under</w>": 273,
  "14</w>": 274,
  "can</w>": 275,
  "23</w>": 276,
  "al": 277,
  "li": 278,
  "13</w>": 279,
  "end</w>": 280,
  "up</w>": 281,
  "50</w>": 282,
  "other</w>": 283,
  "chassis</w>": 284,
  "\u2026</w>": 285,
  "based</w>": 286,
  "ppm</w>": 287,
  "determination</w>": 288,
  "25</w>": 289,
  "w": 290,
  "ex": 291,
  "same</w>": 292,
  "run</w>": 293,
  "11</w>": 294,
  "accordance</w>": 295,
  "0": 296,
  "wltc</w>": 297,
  "standard</w>": 298,
  "has</w>": 299,
  "\u2206</w>": 300,
  "mo": 301,
  "w</w>": 302,
  "di": 303,
  "al</w>": 304,
  "er</w>": 305,
  "power</w>": 306,
  "additional</w>": 307,
  "out</w>": 308,
  "less</w>": 309,
  "recorded</w>": 310,
  "\u2013</w>": 311,
  "above</w>": 312,
  "ti": 313,
  "ratio</w>": 314,
  "able</w>": 315,
  "u": 316,
  "trip</w>": 317,
  "acceleration</w>": 318,
  "ac": 319,
  "weighted</w>": 320,
  "conformity</w>": 321,
  "de": 322,
  "zero</w>": 323,
  "ations</w>": 324,
  "rounded</w>": 325,
  "ts</w>": 326,
  "ated</w>": 327,
  "wind</w>": 328,
  "ec": 329,
  "novc</w>": 330,
  "o</w>": 331,
  "systems</w>": 332,
  "its</w>": 333,
  "fchvs</w>": 334,
  "request</w>": 335,
  "\u2211</w>": 336,
  "equipment</w>": 337,
  "part</w>": 338,
  "filter</w>": 339,
  "coefficients</w>": 340,
  "driver</w>": 341,
  "pro": 342,
  "on": 343,
  "declared</w>": 344,
  "a": 345,
  "ly</w>": 346,
  "urban</w>": 347,
  "vi": 348,
  "carbon</w>": 349,
  "42</w>": 350,
  "cycles</w>": 351,
  "ageing</w>": 352,
  "these</w>": 353,
  "meter</w>": 354,
  "catalyst</w>": 355,
  "accuracy</w>": 356,
  "level</w>": 357,
  "operating</w>": 358,
  "43</w>": 359,
  "order</w>": 360,
  "efficiency</w>": 361,
  "or": 362,
  "arithmetic</w>": 363,
  "45</w>": 364,
  "60</w>": 365,
  "st": 366,
  "coastdown</w>": 367,
  "minimum</w>": 368,
  "seconds</w>": 369,
  "components</w>": 370,
  "equal</w>": 371,
  "5": 372,
  "48</w>": 373,
  "reserved</w>": 374,
  "su": 375,
  "parameters</w>": 376,
  "2": 377,
  "ch</w>": 378,
  "un": 379,
  "resistance</w>": 380,
  "ent</w>": 381,
  "44</w>": 382,
  "particulate</w>": 383,
  "18</w>": 384,
  "including</w>": 385,
  "26</w>": 386,
  "reagent</w>": 387,
  "tions</w>": 388,
  "mi</w>": 389,
  "evaporative</w>": 390,
  "ng</w>": 391,
  "9": 392,
  "ch": 393,
  "17</w>": 394,
  "no": 395,
  "33</w>": 396,
  "35</w>": 397,
  "lower</w>": 398,
  "component</w>": 399,
  "measurements</w>": 400,
  "21</w>": 401,
  "22</w>": 402,
  "er": 403,
  "29</w>": 404,
  "ating</w>": 405,
  "ambient</w>": 406,
  "36</w>": 407,
  "tion</w>": 408,
  "le": 409,
  "through</w>": 410,
  "mi": 411,
  "8": 412,
  "constant</w>": 413,
  "nox</w>": 414,
  "diluted</w>": 415,
  "ding</w>": 416,
  "kpa</w>": 417,
  "mg</w>": 418,
  "setting</w>": 419,
  "bench</w>": 420,
  "check</w>": 421,
  "ic": 422,
  "device</w>": 423,
  "24</w>": 424,
  "positive</w>": 425,
  "ad": 426,
  "equivalent</w>": 427,
  "\u2019</w>": 428,
  "canister</w>": 429,
  "production</w>": 430,
  "ul": 431,
  "preconditioning</w>": 432,
  "non</w>": 433,
  "pn</w>": 434,
  "altitude</w>": 435,
  "sensor</w>": 436,
  "rde</w>": 437,
  "to": 438,
  "see</w>": 439,
  "80</w>": 440,
  "16</w>": 441,
  "off</w>": 442,
  "sub": 443,
  "condition</w>": 444,
  "k": 445,
  "enclosure</w>": 446,
  "lo": 447,
  "19</w>": 448,
  "ri": 449,
  "until</w>": 450,
  "cs</w>": 451,
  "41</w>": 452,
  "47</w>": 453,
  "34</w>": 454,
  "below</w>": 455,
  "was</w>": 456,
  "sequence</w>": 457,
  "either</w>": 458,
  "points</w>": 459,
  "dis": 460,
  "tr": 461,
  "at": 462,
  "drive</w>": 463,
  "ind</w>": 464,
  "complete</w>": 465,
  "measuring</w>": 466,
  "co": 467,
  "gaseous</w>": 468,
  "been</w>": 469,
  "difference</w>": 470,
  "exceed</w>": 471,
  "46</w>": 472,
  "39</w>": 473,
  "52</w>": 474,
  "curve</w>": 475,
  "con": 476,
  "taken</w>": 477,
  "aerodynamic</w>": 478,
  "line</w>": 479,
  "56</w>": 480,
  "tunnel</w>": 481,
  "motorway</w>": 482,
  "information</w>": 483,
  "me": 484,
  "into</w>": 485,
  "but</w>": 486,
  "process</w>": 487,
  "31</w>": 488,
  "el": 489,
  "000</w>": 490,
  "rural</w>": 491,
  "ar": 492,
  "span</w>": 493,
  "<</w>": 494,
  "ty</w>": 495,
  "change</w>": 496,
  "ally</w>": 497,
  "ded</w>": 498,
  "ds</w>": 499,
  "27</w>": 500,
  "y": 501,
  "general</w>": 502,
  "gases</w>": 503,
  "also</w>": 504,
  "without</w>": 505,
  "possible</w>": 506,
  "phases</w>": 507,
  "6": 508,
  "53</w>": 509,
  "95</w>": 510,
  "app</w>": 511,
  "cop</w>": 512,
  "actual</w>": 513,
  "full</w>": 514,
  "28</w>": 515,
  "both</w>": 516,
  "med</w>": 517,
  "higher</w>": 518,
  "tyre</w>": 519,
  "comp": 520,
  "three</w>": 521,
  "particles</w>": 522,
  "greater</w>": 523,
  "se</w>": 524,
  "3": 525,
  "apply</w>": 526,
  "ve</w>": 527,
  "windows</w>": 528,
  "ment</w>": 529,
  "54</w>": 530,
  "00": 531,
  "hydrocarbon</w>": 532,
  "criterion</w>": 533,
  "trace</w>": 534,
  "49</w>": 535,
  "me</w>": 536,
  "running</w>": 537,
  "ignition</w>": 538,
  "equipped</w>": 539,
  "carried</w>": 540,
  "51</w>": 541,
  "appropriate</w>": 542,
  "alternative</w>": 543,
  "verification</w>": 544,
  "ms</w>": 545,
  "90</w>": 546,
  "representative</w>": 547,
  "regeneration</w>": 548,
  "isc</w>": 549,
  "4": 550,
  "instantaneous</w>": 551,
  "analysers</w>": 552,
  "parameter</w>": 553,
  "provided</w>": 554,
  "inlet</w>": 555,
  "whole</w>": 556,
  "charging</w>": 557,
  "utility</w>": 558,
  "si": 559,
  "32</w>": 560,
  "those</w>": 561,
  "wd</w>": 562,
  "'</w>": 563,
  "7": 564,
  "ecu</w>": 565,
  "index</w>": 566,
  "ave</w>": 567,
  "an": 568,
  "min</w>": 569,
  "then</w>": 570,
  "62</w>": 571,
  "application</w>": 572,
  "factors</w>": 573,
  "le</w>": 574,
  "so</w>": 575,
  "ag": 576,
  "instrument</w>": 577,
  "force</w>": 578,
  "highest</w>": 579,
  "55</w>": 580,
  "service</w>": 581,
  "ii</w>": 582,
  "board</w>": 583,
  "ro": 584,
  "37</w>": 585,
  "cvs</w>": 586,
  "hc</w>": 587,
  "given</w>": 588,
  "\u2265</w>": 589,
  "modes</w>": 590,
  "58</w>": 591,
  "st</w>": 592,
  "63</w>": 593,
  "way</w>": 594,
  "prior</w>": 595,
  "ers</w>": 596,
  "normal</w>": 597,
  "there</w>": 598,
  "></w>": 599,
  "61</w>": 600,
  "pure</w>": 601,
  "different</w>": 602,
  "source</w>": 603,
  "does</w>": 604,
  "70</w>": 605,
  "fulfilled</w>": 606,
  "follows</w>": 607,
  "38</w>": 608,
  "necessary</w>": 609,
  "tolerance</w>": 610,
  "obtained</w>": 611,
  "mean</w>": 612,
  "calibrated</w>": 613,
  "petrol</w>": 614,
  "te</w>": 615,
  "fe": 616,
  "installed</w>": 617,
  "reached</w>": 618,
  "purpose</w>": 619,
  "sh": 620,
  "decimal</w>": 621,
  "deceleration</w>": 622,
  "procedures</w>": 623,
  "current</w>": 624,
  "pnc</w>": 625,
  "op": 626,
  "input</w>": 627,
  "corresponding</w>": 628,
  "recommended</w>": 629,
  "soak</w>": 630,
  "determine</w>": 631,
  "validation</w>": 632,
  "ap": 633,
  "pre": 634,
  "analysis</w>": 635,
  "torque</w>": 636,
  "z": 637,
  "frequency</w>": 638,
  "nm</w>": 639,
  "nveh</w>": 640,
  "ab": 641,
  "selection</w>": 642,
  "initial</w>": 643,
  "cannot</w>": 644,
  "consecutive</w>": 645,
  "related</w>": 646,
  "specifications</w>": 647,
  "sed</w>": 648,
  "sp": 649,
  "limit</w>": 650,
  "tyres</w>": 651,
  "will</w>": 652,
  "transition</w>": 653,
  "ver": 654,
  "fi": 655,
  "malfunction</w>": 656,
  "120</w>": 657,
  "minutes</w>": 658,
  "ecdc</w>": 659,
  "inclusive</w>": 660,
  "cont": 661,
  "extended</w>": 662,
  "75</w>": 663,
  "pump</w>": 664,
  "balance</w>": 665,
  "engines</w>": 666,
  "reading</w>": 667,
  "last</w>": 668,
  "whichever</w>": 669,
  "checked</w>": 670,
  "age</w>": 671,
  "referred</w>": 672,
  "target</w>": 673,
  "drag</w>": 674,
  "velocity</w>": 675,
  "evaluation</w>": 676,
  "fault</w>": 677,
  "code</w>": 678,
  "should</w>": 679,
  "hours</w>": 680,
  "characteristics</w>": 681,
  "up": 682,
  "nmhc</w>": 683,
  "single</w>": 684,
  "fitted</w>": 685,
  "conducted</w>": 686,
  "upon</w>": 687,
  "meet</w>": 688,
  "#</w>": 689,
  "fuels</w>": 690,
  "devices</w>": 691,
  "permissible</w>": 692,
  "fid</w>": 693,
  "rrc</w>": 694,
  "rolling</w>": 695,
  "area</w>": 696,
  "per": 697,
  "notification</w>": 698,
  "provide</w>": 699,
  "diameter</w>": 700,
  "types</w>": 701,
  "te": 702,
  "ability</w>": 703,
  "ice</w>": 704,
  "ction</w>": 705,
  "powered</w>": 706,
  "immediately</w>": 707,
  "lpg</w>": 708,
  "ence</w>": 709,
  "nmc</w>": 710,
  "methane</w>": 711,
  "po": 712,
  "transmission</w>": 713,
  "ments</w>": 714,
  "vmax</w>": 715,
  "gazette</w>": 716,
  "matrix</w>": 717,
  "hz</w>": 718,
  "monitoring</w>": 719,
  "ke</w>": 720,
  "window</w>": 721,
  "par": 722,
  "pres": 723,
  "being</w>": 724,
  "pre</w>": 725,
  "concentrations</w>": 726,
  "expected</w>": 727,
  "place</w>": 728,
  "linearity</w>": 729,
  "dec": 730,
  "replaced</w>": 731,
  "water</w>": 732,
  "nominal</w>": 733,
  "chamber</w>": 734,
  "include</w>": 735,
  "respective</w>": 736,
  "ecac</w>": 737,
  "str": 738,
  "mon": 739,
  "aes</w>": 740,
  "performance</w>": 741,
  "calculations</w>": 742,
  "bu": 743,
  "capacity</w>": 744,
  "cl": 745,
  "hydrocarbons</w>": 746,
  "made</w>": 747,
  "th</w>": 748,
  "nearest</w>": 749,
  "recharged</w>": 750,
  "selectable</w>": 751,
  "do": 752,
  "hev</w>": 753,
  "ement</w>": 754,
  "th": 755,
  "verified</w>": 756,
  "ter": 757,
  "description</w>": 758,
  "option</w>": 759,
  "57</w>": 760,
  "121</w>": 761,
  "equations</w>": 762,
  "max</w>": 763,
  "outlet</w>": 764,
  "oxygen</w>": 765,
  "etc</w>": 766,
  "background</w>": 767,
  "their</w>": 768,
  "permitted</w>": 769,
  "x": 770,
  "men": 771,
  "inter": 772,
  "pur": 773,
  "monitor</w>": 774,
  "relevant</w>": 775,
  "200</w>": 776,
  "having</w>": 777,
  "durability</w>": 778,
  "cumulative</w>": 779,
  "j": 780,
  "trans": 781,
  "ho": 782,
  "methods</w>": 783,
  "roller</w>": 784,
  "demand</w>": 785,
  "so": 786,
  "limits</w>": 787,
  "activated</w>": 788,
  "gasoline</w>": 789,
  "ra": 790,
  "function</w>": 791,
  "00</w>": 792,
  "65</w>": 793,
  "pevs</w>": 794,
  "technical</w>": 795,
  "ary</w>": 796,
  "combustion</w>": 797,
  "thc</w>": 798,
  "adjustment</w>": 799,
  "probe</w>": 800,
  "well</w>": 801,
  "optional</w>": 802,
  "operated</w>": 803,
  "ity</w>": 804,
  "mal": 805,
  "indic": 806,
  "imp": 807,
  "64</w>": 808,
  "71</w>": 809,
  "79</w>": 810,
  "81</w>": 811,
  "moderate</w>": 812,
  "sion</w>": 813,
  "biomethane</w>": 814,
  "iii</w>": 815,
  "iv</w>": 816,
  "fl": 817,
  "ic</w>": 818,
  "ler</w>": 819,
  "ter</w>": 820,
  "unit</w>": 821,
  "man": 822,
  "mains</w>": 823,
  "signal</w>": 824,
  "speeds</w>": 825,
  "warning</w>": 826,
  "sensors</w>": 827,
  "gnss</w>": 828,
  "treatment</w>": 829,
  "diagnostic</w>": 830,
  "ai": 831,
  "min": 832,
  "duration</w>": 833,
  "fulfil</w>": 834,
  "ad</w>": 835,
  "deterioration</w>": 836,
  "ensure</w>": 837,
  "sa": 838,
  "rounding</w>": 839,
  "valid</w>": 840,
  "pl": 841,
  "\uf0b1</w>": 842,
  "ved</w>": 843,
  "periods</w>": 844,
  "*</w>": 845,
  "category</w>": 846,
  "fuelled</w>": 847,
  "over": 848,
  "included</w>": 849,
  "id</w>": 850,
  "sealed</w>": 851,
  "break</w>": 852,
  "sea</w>": 853,
  "requirement</w>": 854,
  "statistical</w>": 855,
  "compound</w>": 856,
  "report</w>": 857,
  "manufacturer's</w>": 858,
  "hybrid</w>": 859,
  "cell</w>": 860,
  "diesel</w>": 861,
  "signals</w>": 862,
  "internal</w>": 863,
  "ol": 864,
  "us": 865,
  "respect</w>": 866,
  "ures</w>": 867,
  "wheels</w>": 868,
  "further</w>": 869,
  "connected</w>": 870,
  "calculating</w>": 871,
  "pass</w>": 872,
  "parts</w>": 873,
  "position</w>": 874,
  "every</w>": 875,
  "regression</w>": 876,
  "linear</w>": 877,
  "59</w>": 878,
  "66</w>": 879,
  "76</w>": 880,
  "follow</w>": 881,
  "af</w>": 882,
  "ati": 883,
  "maintenance</w>": 884,
  "ves</w>": 885,
  "directly</w>": 886,
  "failure</w>": 887,
  "warm</w>": 888,
  "sufficient</w>": 889,
  "families</w>": 890,
  "ev": 891,
  "demonstrate</w>": 892,
  "dj</w>": 893,
  "shortened</w>": 894,
  "67</w>": 895,
  "97</w>": 896,
  "storage</w>": 897,
  "provisions</w>": 898,
  "ur": 899,
  "addition</w>": 900,
  "purposes</w>": 901,
  "dry</w>": 902,
  "beginning</w>": 903,
  "99</w>": 904,
  "correct</w>": 905,
  "temperatures</w>": 906,
  "68</w>": 907,
  "74</w>": 908,
  "weigh": 909,
  "loading</w>": 910,
  "new</w>": 911,
  "ne": 912,
  "for": 913,
  "heated</w>": 914,
  "fied</w>": 915,
  "ph": 916,
  "mb": 917,
  "di</w>": 918,
  "we": 919,
  "correc": 920,
  "gi": 921,
  "meters</w>": 922,
  "axle</w>": 923,
  "aer</w>": 924,
  "denominator</w>": 925,
  "occurs</w>": 926,
  "subsequent</w>": 927,
  "\u2217</w>": 928,
  "ppmc</w>": 929,
  "cu": 930,
  "vari": 931,
  "af": 932,
  "en</w>": 933,
  "scale</w>": 934,
  "qu": 935,
  "tailpipe</w>": 936,
  "conver": 937,
  "heat</w>": 938,
  "vi</w>": 939,
  "inducement</w>": 940,
  "flow": 941,
  "size</w>": 942,
  "done</w>": 943,
  "front</w>": 944,
  "02</w>": 945,
  "pairs</w>": 946,
  "characteristic</w>": 947,
  "compliance</w>": 948,
  "shift</w>": 949,
  "ates</w>": 950,
  "ist": 951,
  "out": 952,
  "shed</w>": 953,
  "remo": 954,
  "influence</w>": 955,
  "rot": 956,
  "repeated</w>": 957,
  "deviation</w>": 958,
  "switched</w>": 959,
  "satis": 960,
  "electrical</w>": 961,
  "loss</w>": 962,
  "ser": 963,
  "otherwise</w>": 964,
  "example</w>": 965,
  "identical</w>": 966,
  "steps</w>": 967,
  "samples</w>": 968,
  "absolute</w>": 969,
  "001": 970,
  "hydrogen</w>": 971,
  "verifying</w>": 972,
  "por": 973,
  "decision</w>": 974,
  "gram</w>": 975,
  "he": 976,
  "ance</w>": 977,
  "coun": 978,
  "occur</w>": 979,
  "approved</w>": 980,
  "measures</w>": 981,
  "73</w>": 982,
  "94</w>": 983,
  "72</w>": 984,
  "larger</w>": 985,
  "?</w>": 986,
  "000": 987,
  "du": 988,
  "state</w>": 989,
  "voltage</w>": 990,
  "introduction</w>": 991,
  "down</w>": 992,
  "relative</w>": 993,
  "density</w>": 994,
  "starts</w>": 995,
  "converter</w>": 996,
  "powertrain</w>": 997,
  "gears</w>": 998,
  "ce": 999,
  "wn</w>": 1000,
  "fully</w>": 1001,
  "ors</w>": 1002,
  "ght</w>": 1003,
  "tain</w>": 1004,
  "once</w>": 1005,
  "added</w>": 1006,
  "78</w>": 1007,
  "shown</w>": 1008,
  "weighing</w>": 1009,
  "intermediate</w>": 1010,
  "20": 1011,
  "idle</w>": 1012,
  "tube</w>": 1013,
  "the": 1014,
  "alternatively</w>": 1015,
  "85</w>": 1016,
  "tic</w>": 1017,
  "unless</w>": 1018,
  "model</w>": 1019,
  "nmin</w>": 1020,
  "multiple</w>": 1021,
  "dec</w>": 1022,
  "tive</w>": 1023,
  "ss</w>": 1024,
  "reporting</w>": 1025,
  "com": 1026,
  "compounds</w>": 1027,
  "de</w>": 1028,
  "precision</w>": 1029,
  "whether</w>": 1030,
  "wheel</w>": 1031,
  "chargedepleting</w>": 1032,
  "starting</w>": 1033,
  "ming</w>": 1034,
  "lines</w>": 1035,
  "hour</w>": 1036,
  "diurnal</w>": 1037,
  "allowed</w>": 1038,
  "der</w>": 1039,
  "fac": 1040,
  "original</w>": 1041,
  "humidity</w>": 1042,
  "covered</w>": 1043,
  "77</w>": 1044,
  "placed</w>": 1045,
  "installation</w>": 1046,
  "recording</w>": 1047,
  "fccd</w>": 1048,
  "efm</w>": 1049,
  "tor</w>": 1050,
  "gr": 1051,
  "detector</w>": 1052,
  "q": 1053,
  "ically</w>": 1054,
  "stored</w>": 1055,
  "273</w>": 1056,
  "vapour</w>": 1057,
  "monitored</w>": 1058,
  "oper": 1059,
  "ble</w>": 1060,
  "would</w>": 1061,
  "reported</w>": 1062,
  "ar</w>": 1063,
  "cases</w>": 1064,
  "cm</w>": 1065,
  "minute</w>": 1066,
  "activation</w>": 1067,
  "times</w>": 1068,
  "589</w>": 1069,
  "belt</w>": 1070,
  "interference</w>": 1071,
  "res": 1072,
  "ented</w>": 1073,
  "ust</w>": 1074,
  "pm</w>": 1075,
  "propane</w>": 1076,
  "ling</w>": 1077,
  "ine</w>": 1078,
  "designed</w>": 1079,
  "prescribed</w>": 1080,
  "secondary</w>": 1081,
  "met</w>": 1082,
  "capped</w>": 1083,
  "cho": 1084,
  "cumulated</w>": 1085,
  "tical</w>": 1086,
  "tan": 1087,
  "reesss</w>": 1088,
  "post</w>": 1089,
  "93</w>": 1090,
  "adjusted</w>": 1091,
  "bag</w>": 1092,
  "ecwltc</w>": 1093,
  "perwltc</w>": 1094,
  "interpolated</w>": 1095,
  "hot</w>": 1096,
  "ons</w>": 1097,
  "soaking</w>": 1098,
  "traceable</w>": 1099,
  "averaging</w>": 1100,
  "form": 1101,
  "wh": 1102,
  "fc": 1103,
  "collected</w>": 1104,
  "onic</w>": 1105,
  "limited</w>": 1106,
  "describes</w>": 1107,
  "sing</w>": 1108,
  "frontal</w>": 1109,
  "atmospheric</w>": 1110,
  "combination</w>": 1111,
  "act</w>": 1112,
  "ying</w>": 1113,
  "ters</w>": 1114,
  "separate</w>": 1115,
  "ably</w>": 1116,
  "posi": 1117,
  "puff</w>": 1118,
  "coolant</w>": 1119,
  "ets</w>": 1120,
  "levels</w>": 1121,
  "devi": 1122,
  "fer": 1123,
  "evidence</w>": 1124,
  "respectively</w>": 1125,
  "listed</w>": 1126,
  "resulting</w>": 1127,
  "fail</w>": 1128,
  "is": 1129,
  "remedial</w>": 1130,
  "ereess</w>": 1131,
  "demonstrated</w>": 1132,
  "lap</w>": 1133,
  "drift</w>": 1134,
  "upstream</w>": 1135,
  "har": 1136,
  "profile</w>": 1137,
  "pe": 1138,
  "rou": 1139,
  "matter</w>": 1140,
  "venturi</w>": 1141,
  "reduction</w>": 1142,
  "ical</w>": 1143,
  "ols</w>": 1144,
  "id": 1145,
  "ible</w>": 1146,
  "rec": 1147,
  "external</w>": 1148,
  "effect</w>": 1149,
  "direction</w>": 1150,
  "pev</w>": 1151,
  "traction</w>": 1152,
  "supp": 1153,
  "need</w>": 1154,
  "monitors</w>": 1155,
  "comm": 1156,
  "num": 1157,
  "prev": 1158,
  "amp": 1159,
  "fulfil": 1160,
  "cold</w>": 1161,
  "connec": 1162,
  "against</w>": 1163,
  "pollutant</w>": 1164,
  "worst</w>": 1165,
  "filters</w>": 1166,
  "indicated</w>": 1167,
  "modified</w>": 1168,
  "aged</w>": 1169,
  "applying</w>": 1170,
  "capable</w>": 1171,
  "69</w>": 1172,
  "\u2032</w>": 1173,
  "flat</w>": 1174,
  "calculate</w>": 1175,
  "tol</w>": 1176,
  "ving</w>": 1177,
  "exce": 1178,
  "elevation</w>": 1179,
  "ob": 1180,
  "vpr</w>": 1181,
  "ver</w>": 1182,
  "nitrogen</w>": 1183,
  "thresholds</w>": 1184,
  "se": 1185,
  "tri": 1186,
  "charged</w>": 1187,
  "ency</w>": 1188,
  "reas": 1189,
  "predominant</w>": 1190,
  "fil": 1191,
  "moun": 1192,
  "ay": 1193,
  "fy</w>": 1194,
  "compression</w>": 1195,
  "dynamic</w>": 1196,
  "ak</w>": 1197,
  "except</w>": 1198,
  "jected</w>": 1199,
  "ki</w>": 1200,
  "followed</w>": 1201,
  "sets</w>": 1202,
  "stop</w>": 1203,
  "several</w>": 1204,
  "rear</w>": 1205,
  "regi": 1206,
  "war": 1207,
  "measure</w>": 1208,
  "downstream</w>": 1209,
  "discrete</w>": 1210,
  "form</w>": 1211,
  "bes</w>": 1212,
  "software</w>": 1213,
  "mixture</w>": 1214,
  "vehicle's</w>": 1215,
  "tified</w>": 1216,
  "re</w>": 1217,
  "next</w>": 1218,
  "dat": 1219,
  "gra": 1220,
  "sures</w>": 1221,
  "ged</w>": 1222,
  "ws</w>": 1223,
  "content</w>": 1224,
  "consideration</w>": 1225,
  "row</w>": 1226,
  "ks</w>": 1227,
  "88</w>": 1228,
  "96</w>": 1229,
  "approximately</w>": 1230,
  "seg": 1231,
  "instruments</w>": 1232,
  "runs</w>": 1233,
  "assessment</w>": 1234,
  "func": 1235,
  "101</w>": 1236,
  "repres": 1237,
  "base</w>": 1238,
  "cf": 1239,
  "et</w>": 1240,
  "fchv</w>": 1241,
  "pa</w>": 1242,
  "displ": 1243,
  "fer</w>": 1244,
  "sho": 1245,
  "due</w>": 1246,
  "bo": 1247,
  "regar": 1248,
  "poly": 1249,
  "basis</w>": 1250,
  "design</w>": 1251,
  "propulsion</w>": 1252,
  "tu": 1253,
  "automati": 1254,
  "travelled</w>": 1255,
  "consu": 1256,
  "sol": 1257,
  "ator</w>": 1258,
  "cle": 1259,
  "adjust": 1260,
  "acce": 1261,
  "ant</w>": 1262,
  "ering</w>": 1263,
  "life</w>": 1264,
  "be": 1265,
  "purge</w>": 1266,
  "acti": 1267,
  "sequences</w>": 1268,
  "stabiliz": 1269,
  "completed</w>": 1270,
  "fill</w>": 1271,
  "subsequently</w>": 1272,
  "compar": 1273,
  "hm</w>": 1274,
  "fc</w>": 1275,
  "mj</w>": 1276,
  "metric</w>": 1277,
  "chargesustaining</w>": 1278,
  "wor": 1279,
  "changes</w>": 1280,
  "au": 1281,
  "als</w>": 1282,
  "ais</w>": 1283,
  "while</w>": 1284,
  "lu": 1285,
  "sum</w>": 1286,
  "fr": 1287,
  "amount</w>": 1288,
  "repair</w>": 1289,
  "face</w>": 1290,
  "they</w>": 1291,
  "sto": 1292,
  "stati": 1293,
  "location</w>": 1294,
  "configuration</w>": 1295,
  "ose</w>": 1296,
  "depressurisation</w>": 1297,
  "kel": 1298,
  "similar</w>": 1299,
  "damage</w>": 1300,
  "barometric</w>": 1301,
  "default</w>": 1302,
  "jus": 1303,
  "iso</w>": 1304,
  "ve": 1305,
  "four</w>": 1306,
  "squares</w>": 1307,
  "slope</w>": 1308,
  "removal</w>": 1309,
  "ger</w>": 1310,
  "length</w>": 1311,
  "ables</w>": 1312,
  "body</w>": 1313,
  "trac": 1314,
  "cooling</w>": 1315,
  "fan</w>": 1316,
  "eac</w>": 1317,
  "periodically</w>": 1318,
  "regenerating</w>": 1319,
  "kilo": 1320,
  "gain</w>": 1321,
  "inten": 1322,
  "agreement</w>": 1323,
  "ization</w>": 1324,
  "were</w>": 1325,
  "there": 1326,
  "duc": 1327,
  "che": 1328,
  "direc": 1329,
  "da</w>": 1330,
  "combined</w>": 1331,
  "national</w>": 1332,
  "ma": 1333,
  "changed</w>": 1334,
  "consists</w>": 1335,
  "rise</w>": 1336,
  "ently</w>": 1337,
  "act": 1338,
  "clutch</w>": 1339,
  "les</w>": 1340,
  "\u201c</w>": 1341,
  "300</w>": 1342,
  "misfire</w>": 1343,
  "take</w>": 1344,
  "pen": 1345,
  "status</w>": 1346,
  "atter": 1347,
  "settings</w>": 1348,
  "fe</w>": 1349,
  "z</w>": 1350,
  "asses</w>": 1351,
  "cer": 1352,
  "tolerances</w>": 1353,
  "checks</w>": 1354,
  "stabili": 1355,
  "vcap</w>": 1356,
  "downshift</w>": 1357,
  "weight</w>": 1358,
  "|</w>": 1359,
  "lon": 1360,
  "rr": 1361,
  "column</w>": 1362,
  "axis</w>": 1363,
  "minimi": 1364,
  "variable</w>": 1365,
  "confirmation</w>": 1366,
  "bin</w>": 1367,
  "cld</w>": 1368,
  "ents</w>": 1369,
  "continu": 1370,
  "checking</w>": 1371,
  "tional</w>": 1372,
  "date</w>": 1373,
  "map</w>": 1374,
  "sti": 1375,
  "pt</w>": 1376,
  "ous</w>": 1377,
  "red</w>": 1378,
  "ssv</w>": 1379,
  "ane</w>": 1380,
  "rel": 1381,
  "located</w>": 1382,
  "losses</w>": 1383,
  "tres</w>": 1384,
  "\u201d</w>": 1385,
  "term</w>": 1386,
  "open</w>": 1387,
  "restric": 1388,
  "places</w>": 1389,
  "led</w>": 1390,
  "excee": 1391,
  "months</w>": 1392,
  "resolution</w>": 1393,
  "ative</w>": 1394,
  "ss": 1395,
  "ature</w>": 1396,
  "ov": 1397,
  "started</w>": 1398,
  "1022</w>": 1399,
  "pwot</w>": 1400,
  "expressed</w>": 1401,
  "units</w>": 1402,
  "file</w>": 1403,
  "132</w>": 1404,
  "fication</w>": 1405,
  "98</w>": 1406,
  "dr": 1407,
  "critical</w>": 1408,
  "tro": 1409,
  "ir": 1410,
  "'s</w>": 1411,
  "aining</w>": 1412,
  "depend": 1413,
  "89</w>": 1414,
  "resi": 1415,
  "forces</w>": 1416,
  "produc": 1417,
  "constru": 1418,
  "axles</w>": 1419,
  "idling</w>": 1420,
  "ratios</w>": 1421,
  "action</w>": 1422,
  "tal</w>": 1423,
  "computer</w>": 1424,
  "pi": 1425,
  "cause</w>": 1426,
  "threshold</w>": 1427,
  "plan</w>": 1428,
  "appro": 1429,
  "comply</w>": 1430,
  "manufacturers</w>": 1431,
  "kco</w>": 1432,
  "mm</w>": 1433,
  "track</w>": 1434,
  "quality</w>": 1435,
  "mileage</w>": 1436,
  "400</w>": 1437,
  "occur": 1438,
  "main": 1439,
  "lowest</w>": 1440,
  "instead</w>": 1441,
  "delta</w>": 1442,
  "fixed</w>": 1443,
  "conditioning</w>": 1444,
  "room</w>": 1445,
  "volu": 1446,
  "normally</w>": 1447,
  "ecp</w>": 1448,
  "cruise</w>": 1449,
  "apos</w>": 1450,
  "ide</w>": 1451,
  "exceeding</w>": 1452,
  "conduc": 1453,
  "il": 1454,
  "free</w>": 1455,
  "smo": 1456,
  "abs": 1457,
  "tr</w>": 1458,
  "working</w>": 1459,
  "ised</w>": 1460,
  "evalu": 1461,
  "duce</w>": 1462,
  "clo": 1463,
  "however</w>": 1464,
  "cal</w>": 1465,
  "ational</w>": 1466,
  "flu": 1467,
  "quan": 1468,
  "tification</w>": 1469,
  "classi": 1470,
  "tw": 1471,
  "refers</w>": 1472,
  "definition</w>": 1473,
  "techn": 1474,
  "side</w>": 1475,
  "accur": 1476,
  "bi</w>": 1477,
  "material</w>": 1478,
  "cataly": 1479,
  "events</w>": 1480,
  "long</w>": 1481,
  "increase</w>": 1482,
  "confir": 1483,
  "since</w>": 1484,
  "enable</w>": 1485,
  "ssing</w>": 1486,
  "cor": 1487,
  "ron": 1488,
  "cre": 1489,
  "tioned</w>": 1490,
  "ann": 1491,
  "ory</w>": 1492,
  "comple": 1493,
  "01</w>": 1494,
  "bra": 1495,
  "continuously</w>": 1496,
  "emp": 1497,
  "estim": 1498,
  "consist</w>": 1499,
  "82</w>": 1500,
  "eler": 1501,
  "achieve</w>": 1502,
  "interim</w>": 1503,
  "nadd</w>": 1504,
  "closed</w>": 1505,
  "ze</w>": 1506,
  "laboratory</w>": 1507,
  "ufm</w>": 1508,
  "passed</w>": 1509,
  "dilu": 1510,
  "turned</w>": 1511,
  "anc": 1512,
  "ential</w>": 1513,
  "documentation</w>": 1514,
  "manual</w>": 1515,
  "sbc</w>": 1516,
  "exchange</w>": 1517,
  "failed</w>": 1518,
  "detailed</w>": 1519,
  "regul": 1520,
  "document</w>": 1521,
  "identification</w>": 1522,
  "ca": 1523,
  "vol": 1524,
  "do</w>": 1525,
  "mixing</w>": 1526,
  "continuous</w>": 1527,
  "plac": 1528,
  "accep": 1529,
  "peri": 1530,
  "plus</w>": 1531,
  "series</w>": 1532,
  "maintained</w>": 1533,
  "bl": 1534,
  "another</w>": 1535,
  "cap</w>": 1536,
  "multi": 1537,
  "reli": 1538,
  "identi": 1539,
  "percen": 1540,
  "ens": 1541,
  "ial</w>": 1542,
  "contain</w>": 1543,
  "inte": 1544,
  "active</w>": 1545,
  "throughout</w>": 1546,
  "dra": 1547,
  "ators</w>": 1548,
  "mark": 1549,
  "integrated</w>": 1550,
  "modifications</w>": 1551,
  "ring</w>": 1552,
  "bec": 1553,
  "stan": 1554,
  "downscaling</w>": 1555,
  "syn": 1556,
  "engine": 1557,
  "conform</w>": 1558,
  "initi": 1559,
  "10": 1560,
  "ngvmax</w>": 1561,
  "vj</w>": 1562,
  "ids</w>": 1563,
  "encies</w>": 1564,
  "compo": 1565,
  "particular</w>": 1566,
  "conditioned</w>": 1567,
  "oil</w>": 1568,
  "readings</w>": 1569,
  "ten": 1570,
  "conversion</w>": 1571,
  "molar</w>": 1572,
  "interval</w>": 1573,
  "concer": 1574,
  "special</w>": 1575,
  "diagnostics</w>": 1576,
  "real</w>": 1577,
  "dated</w>": 1578,
  "read": 1579,
  "sub</w>": 1580,
  "responsi": 1581,
  "recommend": 1582,
  "tane</w>": 1583,
  "ethanol</w>": 1584,
  "cf</w>": 1585,
  "pn": 1586,
  "stitu": 1587,
  "major</w>": 1588,
  "affect</w>": 1589,
  "degre": 1590,
  "rated</w>": 1591,
  "drive": 1592,
  "divided</w>": 1593,
  "inertia</w>": 1594,
  "compared</w>": 1595,
  "rcdc</w>": 1596,
  "depen": 1597,
  "auxiliary</w>": 1598,
  "ously</w>": 1599,
  "325</w>": 1600,
  "equ": 1601,
  "grams</w>": 1602,
  "defici": 1603,
  "identified</w>": 1604,
  "beco": 1605,
  "sions</w>": 1606,
  "account</w>": 1607,
  "entire</w>": 1608,
  "useful</w>": 1609,
  "avoid</w>": 1610,
  "acc": 1611,
  "ends</w>": 1612,
  "&</w>": 1613,
  "injection</w>": 1614,
  "derived</w>": 1615,
  "ran": 1616,
  "yearly</w>": 1617,
  "indices</w>": 1618,
  "ec</w>": 1619,
  "05</w>": 1620,
  "third</w>": 1621,
  "signific": 1622,
  "averaged</w>": 1623,
  "determining</w>": 1624,
  "instructions</w>": 1625,
  "intervals</w>": 1626,
  "ain</w>": 1627,
  "tstart</w>": 1628,
  "chosen</w>": 1629,
  "centr": 1630,
  "ot</w>": 1631,
  "separately</w>": 1632,
  "git": 1633,
  "preparation</w>": 1634,
  "ensation</w>": 1635,
  "negative</w>": 1636,
  "completion</w>": 1637,
  "error</w>": 1638,
  "exchanger</w>": 1639,
  "ti</w>": 1640,
  "passing</w>": 1641,
  "mobility</w>": 1642,
  "intake</w>": 1643,
  "grade</w>": 1644,
  "smoothing</w>": 1645,
  "dw": 1646,
  "light</w>": 1647,
  "exten": 1648,
  "establish": 1649,
  "regard</w>": 1650,
  "prim": 1651,
  "ided</w>": 1652,
  "u</w>": 1653,
  "applies</w>": 1654,
  "electr": 1655,
  "liquid</w>": 1656,
  "dp</w>": 1657,
  "pf</w>": 1658,
  "monoxide</w>": 1659,
  "manner</w>": 1660,
  "analy": 1661,
  "delay</w>": 1662,
  "ward</w>": 1663,
  "simulated</w>": 1664,
  "repe": 1665,
  "simul": 1666,
  "cally</w>": 1667,
  "mach": 1668,
  "flex</w>": 1669,
  "provi": 1670,
  "activ": 1671,
  "configurable</w>": 1672,
  "allow</w>": 1673,
  "fuelling</w>": 1674,
  "electronic</w>": 1675,
  "introduc": 1676,
  "contained</w>": 1677,
  "heating</w>": 1678,
  "requi": 1679,
  "circu": 1680,
  "ten</w>": 1681,
  "ption</w>": 1682,
  "sec": 1683,
  "ses</w>": 1684,
  "deemed</w>": 1685,
  "prote": 1686,
  "ased</w>": 1687,
  "increased</w>": 1688,
  "kept</w>": 1689,
  "acceptable</w>": 1690,
  "under": 1691,
  "ings</w>": 1692,
  "outside</w>": 1693,
  "aero": 1694,
  "principle</w>": 1695,
  "stated</w>": 1696,
  "multiplied</w>": 1697,
  "excluded</w>": 1698,
  "nor": 1699,
  "tre": 1700,
  "150</w>": 1701,
  "deactivated</w>": 1702,
  "validated</w>": 1703,
  "of": 1704,
  "cen": 1705,
  "mr</w>": 1706,
  "downshifts</w>": 1707,
  "effective</w>": 1708,
  "simulation</w>": 1709,
  "radi": 1710,
  "lm</w>": 1711,
  "alignment</w>": 1712,
  "dep": 1713,
  "ssi": 1714,
  "product</w>": 1715,
  "correlation</w>": 1716,
  "ranges</w>": 1717,
  "bags</w>": 1718,
  "proce": 1719,
  "invalid</w>": 1720,
  "depletion</w>": 1721,
  "pm": 1722,
  "drain</w>": 1723,
  "odo": 1724,
  "certificate</w>": 1725,
  "crankcase</w>": 1726,
  "iuprm</w>": 1727,
  "uni": 1728,
  "83</w>": 1729,
  "pollution</w>": 1730,
  "um</w>": 1731,
  "jec": 1732,
  "road": 1733,
  "sel": 1734,
  "sition</w>": 1735,
  "counter</w>": 1736,
  "ox": 1737,
  "ap</w>": 1738,
  "ness</w>": 1739,
  "double</w>": 1740,
  "controlled</w>": 1741,
  "sur": 1742,
  "lock": 1743,
  "filled</w>": 1744,
  "achiev": 1745,
  "mechanical</w>": 1746,
  "eaer</w>": 1747,
  "tered</w>": 1748,
  "characteri": 1749,
  "ne</w>": 1750,
  "pr": 1751,
  "kw</w>": 1752,
  "event</w>": 1753,
  "valve</w>": 1754,
  "detected</w>": 1755,
  "short</w>": 1756,
  "connection</w>": 1757,
  "allow": 1758,
  "standards</w>": 1759,
  "tool</w>": 1760,
  "mes</w>": 1761,
  "mitted</w>": 1762,
  "incremen": 1763,
  "ross</w>": 1764,
  "good</w>": 1765,
  "contain": 1766,
  "remain</w>": 1767,
  "dro": 1768,
  "belong</w>": 1769,
  "split</w>": 1770,
  "here</w>": 1771,
  "effects</w>": 1772,
  "dic": 1773,
  "chart</w>": 1774,
  "selec": 1775,
  "section</w>": 1776,
  "hol": 1777,
  "\u221a</w>": 1778,
  "438</w>": 1779,
  "jud": 1780,
  "fit</w>": 1781,
  "empty</w>": 1782,
  "ig": 1783,
  "engaged</w>": 1784,
  "restraint</w>": 1785,
  "sampled</w>": 1786,
  "year</w>": 1787,
  "equivalency</w>": 1788,
  "connecting</w>": 1789,
  "cy": 1790,
  "int</w>": 1791,
  "stepwise</w>": 1792,
  "kilometer</w>": 1793,
  "eaerp</w>": 1794,
  "aer": 1795,
  "incremented</w>": 1796,
  "shares</w>": 1797,
  "123</w>": 1798,
  "ized</w>": 1799,
  "definitions</w>": 1800,
  "iti": 1801,
  "strategy</w>": 1802,
  "package</w>": 1803,
  "calibr": 1804,
  "ics</w>": 1805,
  "amen": 1806,
  "includes</w>": 1807,
  "perme": 1808,
  "fier</w>": 1809,
  "rc": 1810,
  "dif": 1811,
  "could</w>": 1812,
  "anemometer</w>": 1813,
  "train</w>": 1814,
  "enced</w>": 1815,
  "anemometry</w>": 1816,
  "height</w>": 1817,
  "perman": 1818,
  "ou": 1819,
  "needed</w>": 1820,
  "neutr": 1821,
  "ess</w>": 1822,
  "ut</w>": 1823,
  "emitted</w>": 1824,
  "requires</w>": 1825,
  "overflow</w>": 1826,
  "breakthrough</w>": 1827,
  "codes</w>": 1828,
  "illu": 1829,
  "indicator</w>": 1830,
  "it": 1831,
  "stream</w>": 1832,
  "cylin": 1833,
  "differences</w>": 1834,
  "switch": 1835,
  "faul": 1836,
  "declar": 1837,
  "adap": 1838,
  "ib": 1839,
  "tly</w>": 1840,
  "years</w>": 1841,
  "supply</w>": 1842,
  "still</w>": 1843,
  "demonstration</w>": 1844,
  "und</w>": 1845,
  "functioning</w>": 1846,
  "stances</w>": 1847,
  "omitted</w>": 1848,
  "perform</w>": 1849,
  "86</w>": 1850,
  "leak": 1851,
  "ach": 1852,
  "consisting</w>": 1853,
  "interrup": 1854,
  "correspon": 1855,
  "record</w>": 1856,
  "days</w>": 1857,
  "gener": 1858,
  "remain": 1859,
  "tend</w>": 1860,
  "accelerator</w>": 1861,
  "kno": 1862,
  "ton": 1863,
  "cross</w>": 1864,
  "analysed</w>": 1865,
  "smoothed</w>": 1866,
  "us</w>": 1867,
  "ans</w>": 1868,
  "tes</w>": 1869,
  "proportional</w>": 1870,
  "therm": 1871,
  "day</w>": 1872,
  "steady</w>": 1873,
  "by": 1874,
  "ufphase</w>": 1875,
  "fcweighted</w>": 1876,
  "perlow</w>": 1877,
  "permed</w>": 1878,
  "perhigh</w>": 1879,
  "ci</w>": 1880,
  "graphic</w>": 1881,
  "quench</w>": 1882,
  "hcorr</w>": 1883,
  "name</w>": 1884,
  "500</w>": 1885,
  "modi": 1886,
  "list</w>": 1887,
  "annex": 1888,
  "validity</w>": 1889,
  "un</w>": 1890,
  "develo": 1891,
  "previous</w>": 1892,
  "la": 1893,
  "categories</w>": 1894,
  "oxide</w>": 1895,
  "disp": 1896,
  "sy": 1897,
  "eth": 1898,
  "pu": 1899,
  "tak": 1900,
  "dy": 1901,
  "mix": 1902,
  "king</w>": 1903,
  "lies</w>": 1904,
  "valid": 1905,
  "fec": 1906,
  "ong</w>": 1907,
  "ately</w>": 1908,
  "est": 1909,
  "ili": 1910,
  "elec": 1911,
  "count</w>": 1912,
  "pe</w>": 1913,
  "ure</w>": 1914,
  "metr": 1915,
  "dynam": 1916,
  "tran": 1917,
  "standar": 1918,
  "ater</w>": 1919,
  "prepar": 1920,
  "mati": 1921,
  "minu": 1922,
  "ality</w>": 1923,
  "stor": 1924,
  "exclu": 1925,
  "charg": 1926,
  "fore</w>": 1927,
  "ual</w>": 1928,
  "erator</w>": 1929,
  "denomin": 1930,
  "lin": 1931,
  "ected</w>": 1932,
  "speci": 1933,
  "pollutan": 1934,
  "ear": 1935,
  "car": 1936,
  "sure</w>": 1937,
  "squ": 1938,
  "coll": 1939,
  "ences</w>": 1940,
  "tion": 1941,
  "pipe</w>": 1942,
  "bed</w>": 1943,
  "bal": 1944,
  "formation</w>": 1945,
  "vely</w>": 1946,
  "bility</w>": 1947,
  "11": 1948,
  "mat": 1949,
  "dete": 1950,
  "sive</w>": 1951,
  "neg": 1952,
  "el</w>": 1953,
  "linear": 1954,
  "mater": 1955,
  "ari": 1956,
  "function": 1957,
  "fol": 1958,
  "air": 1959,
  "lied</w>": 1960,
  "tage</w>": 1961,
  "provid": 1962,
  "mp": 1963,
  "enclo": 1964,
  "strate": 1965,
  "influ": 1966,
  "verif": 1967,
  "specific": 1968,
  "down": 1969,
  "requ": 1970,
  "differ": 1971,
  "consist": 1972,
  "integr": 1973,
  "zer": 1974,
  "interpol": 1975,
  "ning</w>": 1976,
  "bc</w>": 1977,
  "mulation</w>": 1978,
  "consider": 1979,
  "ays</w>": 1980,
  "signed</w>": 1981,
  "hy": 1982,
  "reach": 1983,
  "avail": 1984,
  "effici": 1985,
  "descri": 1986,
  "ith": 1987,
  "nnnn": 1988,
  "ned</w>": 1989,
  "nu": 1990,
  "char": 1991,
  "cal": 1992,
  "fail": 1993,
  "fin": 1994,
  "\u2219": 1995,
  "docu": 1996,
  "ang": 1997,
  "pair</w>": 1998,
  "instru": 1999,
  "loa": 2000,
  "typ": 2001,
  "gy</w>": 2002,
  "charge": 2003,
  "ke": 2004,
  "ture</w>": 2005,
  "ground</w>": 2006,
  "ained</w>": 2007,
  "ces</w>": 2008,
  "enti": 2009,
  "age": 2010,
  "ain": 2011,
  "que</w>": 2012,
  "mentation</w>": 2013,
  "asse": 2014,
  "enc": 2015,
  "urb": 2016,
  "additi": 2017,
  "pass": 2018,
  "cri": 2019,
  "tation</w>": 2020,
  "ther</w>": 2021,
  "ls</w>": 2022,
  "ak": 2023,
  "soak": 2024,
  "pp": 2025,
  "uf": 2026,
  "bre": 2027,
  "defin": 2028,
  "perform": 2029,
  "dc</w>": 2030,
  "ef": 2031,
  "spec": 2032,
  "combin": 2033,
  "cul": 2034,
  "cool": 2035,
  "der": 2036,
  "isation</w>": 2037,
  "her": 2038,
  "erat": 2039,
  "ility</w>": 2040,
  "examp": 2041,
  "plu": 2042,
  "val": 2043,
  "stru": 2044,
  "ay</w>": 2045,
  "sour": 2046,
  "detail": 2047,
  "ure": 2048,
  "stand": 2049,
  "inal</w>": 2050,
  "avo": 2051,
  "io": 2052,
  "divid": 2053,
  "regener": 2054,
  "lab": 2055,
  "sign": 2056,
  "compu": 2057,
  "samp": 2058,
  "im": 2059,
  "temp": 2060,
  "wlt": 2061,
  "ases</w>": 2062,
  "igh</w>": 2063,
  "compli": 2064,
  "ibr": 2065,
  "lation</w>": 2066,
  "ther": 2067,
  "tted</w>": 2068,
  "ci": 2069,
  "tained</w>": 2070,
  "ause</w>": 2071,
  "with": 2072,
  "atmosp": 2073,
  "configur": 2074,
  "appen": 2075,
  "err": 2076,
  "tur": 2077,
  "ree": 2078,
  "swit": 2079,
  "eng": 2080,
  "pped</w>": 2081,
  "onal</w>": 2082,
  "coast": 2083,
  "align": 2084,
  "dyna": 2085,
  "aro": 2086,
  "low": 2087,
  "ce</w>": 2088,
  "ever</w>": 2089,
  "\u2018": 2090,
  "wi": 2091,
  "strea": 2092,
  "transmissi": 2093,
  "ty": 2094,
  "altern": 2095,
  "ific": 2096,
  "shi": 2097,
  "mc</w>": 2098,
  "rele": 2099,
  "effec": 2100,
  "detec": 2101,
  "loc": 2102,
  "ise</w>": 2103,
  "ssible</w>": 2104,
  "ing": 2105,
  "tively</w>": 2106,
  "bel": 2107,
  "establi": 2108,
  "check": 2109,
  "cur": 2110,
  "downscal": 2111,
  "oth</w>": 2112,
  "incre": 2113,
  "fig": 2114,
  "prop": 2115,
  "demonstr": 2116,
  "clu": 2117,
  "ressi": 2118,
  "eaer": 2119,
  "gn</w>": 2120,
  "@": 2121,
  "main</w>": 2122,
  "separ": 2123,
  "bas": 2124,
  "previ": 2125,
  "period": 2126,
  "mor": 2127,
  "ee": 2128,
  "diagno": 2129,
  "vals</w>": 2130,
  "determin": 2131,
  "tech": 2132,
  "ree</w>": 2133,
  "utili": 2134,
  "han": 2135,
  "ition</w>": 2136,
  "fuel": 2137,
  "amb": 2138,
  "canist": 2139,
  "est</w>": 2140,
  "fact": 2141,
  "\u2192": 2142,
  "od</w>": 2143,
  "scal": 2144,
  "sequ": 2145,
  "ent": 2146,
  "mode": 2147,
  "ase</w>": 2148,
  "repor": 2149,
  "{": 2150,
  "}": 2151,
  "assess": 2152,
  "eous</w>": 2153,
  "mechan": 2154,
  "ression</w>": 2155,
  "dia": 2156,
  "refer": 2157,
  "recor": 2158,
  "wit": 2159,
  "iup": 2160,
  "lar": 2161,
  "meth": 2162,
  "ast</w>": 2163,
  "ac</w>": 2164,
  "cap": 2165,
  "evapor": 2166,
  "ural</w>": 2167,
  "rol": 2168,
  "shif": 2169,
  "pump": 2170,
  "shor": 2171,
  "propor": 2172,
  "cover": 2173,
  "vic": 2174,
  "charac": 2175,
  "particul": 2176,
  "bio": 2177,
  "relation</w>": 2178,
  "nov": 2179,
  "gh": 2180,
  "manufact": 2181,
  "tely</w>": 2182,
  "suffici": 2183,
  "interi": 2184,
  "very</w>": 2185,
  "mar": 2186,
  "els</w>": 2187,
  "ste": 2188,
  "apped</w>": 2189,
  "ga": 2190,
  "iz": 2191,
  "rang": 2192,
  "ear</w>": 2193,
  "ither</w>": 2194,
  "graphic": 2195,
  "trace": 2196,
  "\u00b7": 2197,
  "indu": 2198,
  "ess": 2199,
  "pment</w>": 2200,
  "stance</w>": 2201,
  "grap": 2202,
  "cr": 2203,
  "oc": 2204,
  "ank": 2205,
  "syste": 2206,
  "ail": 2207,
  "na": 2208,
  "emissi": 2209,
  "res</w>": 2210,
  "chang": 2211,
  "mption</w>": 2212,
  "applic": 2213,
  "clut": 2214,
  "prec": 2215,
  "app": 2216,
  "mini": 2217,
  "sity</w>": 2218,
  "vices</w>": 2219,
  "respon": 2220,
  "individ": 2221,
  "respec": 2222,
  "prescri": 2223,
  "des": 2224,
  "shifts</w>": 2225,
  "high": 2226,
  "fici": 2227,
  "deri": 2228,
  "fu": 2229,
  "manu": 2230,
  "trave": 2231,
  "tail": 2232,
  "are": 2233,
  "\u2044": 2234,
  "month": 2235,
  "ha": 2236,
  "test": 2237,
  "control": 2238,
  "beg": 2239,
  "break": 2240,
  "eed</w>": 2241,
  "deterior": 2242,
  "atory</w>": 2243,
  "measur": 2244,
  "approx": 2245,
  "coas": 2246,
  "den": 2247,
  "mand</w>": 2248,
  "ese": 2249,
  "equi": 2250,
  "rea": 2251,
  "ft</w>": 2252,
  "nn": 2253,
  "pr</w>": 2254,
  "ge</w>": 2255,
  "dur": 2256,
  "ll</w>": 2257,
  "consi": 2258,
  "roug": 2259,
  "affec": 2260,
  "aging</w>": 2261,
  "\u22ef": 2262,
  "arg": 2263,
  "esti": 2264,
  "inst": 2265,
  "ate": 2266,
  "limi": 2267,
  "curr": 2268,
  "diag": 2269,
  "fic": 2270,
  "fications</w>": 2271,
  "sever": 2272,
  "dary</w>": 2273,
  "necess": 2274,
  "jection</w>": 2275,
  "bet": 2276,
  "bri": 2277,
  "cru": 2278,
  "\uf0b3": 2279,
  "princip": 2280,
  "medi": 2281,
  "parti": 2282,
  "mber</w>": 2283,
  "exp": 2284,
  "ere</w>": 2285,
  "\u222b": 2286,
  "cle</w>": 2287,
  "begin": 2288,
  "er's</w>": 2289,
  "hs</w>": 2290,
  "ass": 2291,
  "oth": 2292,
  "gn": 2293,
  "auto": 2294,
  "missi": 2295,
  "go": 2296,
  "\u2022": 2297,
  "ulation</w>": 2298,
  "assi": 2299,
  "tra": 2300,
  "am": 2301,
  "statisti": 2302,
  "vice</w>": 2303,
  "sens": 2304,
  "del": 2305,
  "dri": 2306,
  "vap": 2307,
  "mis": 2308,
  "fir": 2309,
  "amoun": 2310,
  "stant</w>": 2311,
  "hybri": 2312,
  "equival": 2313,
  "consec": 2314,
  "uti": 2315,
  "\u2014": 2316,
  "reag": 2317,
  "hic": 2318,
  "lled</w>": 2319,
  "veri": 2320,
  "appropri": 2321,
  "inerti": 2322,
  "frequ": 2323,
  "amber</w>": 2324,
  "win": 2325,
  "ol</w>": 2326,
  "restr": 2327,
  "des</w>": 2328,
  "cir": 2329,
  "qui": 2330,
  "ight</w>": 2331,
  "analys": 2332,
  "seal": 2333,
  "metry</w>": 2334,
  "ass</w>": 2335,
  "\u22c5": 2336,
  "intro": 2337,
  "alternati": 2338,
  "our</w>": 2339,
  "oi": 2340,
  "sses</w>": 2341,
  "categor": 2342,
  "deno": 2343,
  "nm": 2344,
  "tun": 2345,
  "desi": 2346,
  "\uf0a3": 2347,
  "ven</w>": 2348,
  "pressur": 2349,
  "ard</w>": 2350,
  "ur</w>": 2351,
  "av": 2352,
  "ail</w>": 2353,
  "dam": 2354,
  "ares</w>": 2355,
  "comb": 2356,
  "tude</w>": 2357,
  "fix": 2358,
  "ff</w>": 2359,
  "et": 2360,
  "pol": 2361,
  "nit": 2362,
  "capac": 2363,
  "liqui": 2364,
  "deple": 2365,
  "taneous</w>": 2366,
  "urs</w>": 2367,
  "sen</w>": 2368,
  "run": 2369,
  "aint</w>": 2370,
  "ind": 2371,
  "arith": 2372,
  "cat": 2373,
  "certi": 2374,
  "fur": 2375,
  "ki": 2376,
  "\u221e": 2377,
  "slo": 2378,
  "recom": 2379,
  "corr</w>": 2380,
  "ax": 2381,
  "fa": 2382,
  "achie": 2383,
  "ous": 2384,
  "olu": 2385,
  "orig": 2386,
  "ful</w>": 2387,
  "\uf0d7": 2388,
  "resul": 2389,
  "ack": 2390,
  "carb": 2391,
  "olution</w>": 2392,
  "put</w>": 2393,
  "elev": 2394,
  "reg": 2395,
  "discre": 2396,
  "nel</w>": 2397,
  "manufactur": 2398,
  "star": 2399,
  "col": 2400,
  "\u0301": 2401,
  "tern": 2402,
  "vs</w>": 2403,
  "back": 2404,
  "instal": 2405,
  "imal</w>": 2406,
  "ethan": 2407,
  "\u2260": 2408,
  "os</w>": 2409,
  "carri": 2410,
  "colum": 2411,
  "ceed</w>": 2412,
  "aux": 2413,
  "sted</w>": 2414,
  "ir</w>": 2415,
  "inclu": 2416,
  "atmospher": 2417,
  "power": 2418,
  "expres": 2419,
  "gen</w>": 2420,
  "rm</w>": 2421,
  "ful": 2422,
  "let</w>": 2423,
  "arithme": 2424,
  "dix</w>": 2425,
  "predomin": 2426,
  "\uf073": 2427,
  "mation</w>": 2428,
  "remedi": 2429,
  "minal</w>": 2430,
  "fro": 2431,
  "velo": 2432,
  "\ud835\udfce": 2433,
  "\ud835\udfcf": 2434,
  "\ud835\udfd0": 2435,
  "max": 2436,
  "wot</w>": 2437,
  "cann": 2438,
  "acy</w>": 2439,
  "rati": 2440,
  "om</w>": 2441,
  "hu": 2442,
  "\u221d": 2443,
  "tor": 2444,
  "veloc": 2445,
  "thir": 2446,
  "ventur": 2447,
  "humi": 2448,
  "accord": 2449,
  "roun": 2450,
  "sett": 2451,
  "groun": 2452,
  "lp": 2453,
  "dition</w>": 2454,
  "rup": 2455,
  "\uf06d": 2456,
  "ffici": 2457,
  "cip": 2458,
  "smooth": 2459,
  "condition": 2460,
  "pair": 2461,
  "\uf05b": 2462,
  "\uf05d": 2463,
  "fch": 2464,
  "permissi": 2465,
  "ference</w>": 2466,
  "nal</w>": 2467,
  "duction</w>": 2468,
  "exchang": 2469,
  "ell</w>": 2470,
  "diur": 2471,
  "confor": 2472,
  "depressur": 2473,
  "brea": 2474,
  "rap": 2475,
  "misfir": 2476,
  "monitor": 2477,
  "sing": 2478,
  "carbons</w>": 2479,
  "ex</w>": 2480,
  "nee": 2481,
  "tol": 2482,
  "ances</w>": 2483,
  "represent": 2484,
  "ctions</w>": 2485,
  "eeds</w>": 2486,
  "dou": 2487,
  "igh": 2488,
  "multip": 2489,
  "\uf06c": 2490,
  "aver": 2491,
  "extern": 2492,
  "gre": 2493,
  "\u2248": 2494,
  "leng": 2495,
  "labor": 2496,
  "ies</w>": 2497,
  "mul": 2498,
  "reser": 2499
}